{
  "0": "<BOS>",
  "1": "<EOS>",
  "2": "Ā",
  "3": "ā",
  "4": "Ă",
  "5": "ă",
  "6": "Ą",
  "7": "ą",
  "8": "Ć",
  "9": "ć",
  "10": "Ĉ",
  "11": "ĉ",
  "12": "Ċ",
  "13": "ċ",
  "14": "Č",
  "15": "č",
  "16": "Ď",
  "17": "ď",
  "18": "Đ",
  "19": "đ",
  "20": "Ē",
  "21": "ē",
  "22": "Ĕ",
  "23": "ĕ",
  "24": "Ė",
  "25": "ė",
  "26": "Ę",
  "27": "ę",
  "28": "Ě",
  "29": "ě",
  "30": "Ĝ",
  "31": "ĝ",
  "32": "Ğ",
  "33": "ğ",
  "34": "Ġ",
  "35": "ġ",
  "36": "Ģ",
  "37": "ģ",
  "38": "Ĥ",
  "39": "ĥ",
  "40": "Ħ",
  "41": "ħ",
  "42": "Ĩ",
  "43": "ĩ",
  "44": "Ī",
  "45": "ī",
  "46": "Ĭ",
  "47": "ĭ",
  "48": "Į",
  "49": "į",
  "50": "İ",
  "51": "ı",
  "52": "Ĳ",
  "53": "ĳ",
  "54": "Ĵ",
  "55": "ĵ",
  "56": "Ķ",
  "57": "ķ",
  "58": "ĸ",
  "59": "Ĺ",
  "60": "ĺ",
  "61": "Ļ",
  "62": "ļ",
  "63": "Ľ",
  "64": "ľ",
  "65": "Ŀ",
  "66": "ŀ",
  "67": "Ł",
  "68": "ł",
  "69": "Ń",
  "70": "ń",
  "71": "Ņ",
  "72": "ņ",
  "73": "Ň",
  "74": "ň",
  "75": "ŉ",
  "76": "Ŋ",
  "77": "ŋ",
  "78": "Ō",
  "79": "ō",
  "80": "Ŏ",
  "81": "ŏ",
  "82": "Ő",
  "83": "ő",
  "84": "Œ",
  "85": "œ",
  "86": "Ŕ",
  "87": "ŕ",
  "88": "Ŗ",
  "89": "ŗ",
  "90": "Ř",
  "91": "ř",
  "92": "Ś",
  "93": "ś",
  "94": "Ŝ",
  "95": "ŝ",
  "96": "Ş",
  "97": "ş",
  "98": "Š",
  "99": "š",
  "100": "Ţ",
  "101": "ţ",
  "102": "Ť",
  "103": "ť",
  "104": "Ŧ",
  "105": "ŧ",
  "106": "Ũ",
  "107": "ũ",
  "108": "Ū",
  "109": "ū",
  "110": "Ŭ",
  "111": "ŭ",
  "112": "Ů",
  "113": "ů",
  "114": "Ű",
  "115": "ű",
  "116": "Ų",
  "117": "ų",
  "118": "Ŵ",
  "119": "ŵ",
  "120": "Ŷ",
  "121": "ŷ",
  "122": "Ÿ",
  "123": "Ź",
  "124": "ź",
  "125": "Ż",
  "126": "ż",
  "127": "Ž",
  "128": "ž",
  "129": "ſ",
  "130": "ƀ",
  "131": "Ɓ",
  "132": "Ƃ",
  "133": "ƃ",
  "134": "Ƅ",
  "135": "ƅ",
  "136": "Ɔ",
  "137": "Ƈ",
  "138": "ƈ",
  "139": "Ɖ",
  "140": "Ɗ",
  "141": "Ƌ",
  "142": "ƌ",
  "143": "ƍ",
  "144": "Ǝ",
  "145": "Ə",
  "146": "Ɛ",
  "147": "Ƒ",
  "148": "ƒ",
  "149": "Ɠ",
  "150": "Ɣ",
  "151": "ƕ",
  "152": "Ɩ",
  "153": "Ɨ",
  "154": "Ƙ",
  "155": "ƙ",
  "156": "ƚ",
  "157": "ƛ",
  "158": "Ɯ",
  "159": "Ɲ",
  "160": "ƞ",
  "161": "Ɵ",
  "162": "Ơ",
  "163": "ơ",
  "164": "Ƣ",
  "165": "ƣ",
  "166": "Ƥ",
  "167": "ƥ",
  "168": "Ʀ",
  "169": "Ƨ",
  "170": "ƨ",
  "171": "Ʃ",
  "172": "ƪ",
  "173": "ƫ",
  "174": "Ƭ",
  "175": "ƭ",
  "176": "Ʈ",
  "177": "Ư",
  "178": "ư",
  "179": "Ʊ",
  "180": "Ʋ",
  "181": "Ƴ",
  "182": "ƴ",
  "183": "Ƶ",
  "184": "ƶ",
  "185": "Ʒ",
  "186": "Ƹ",
  "187": "ƹ",
  "188": "ƺ",
  "189": "ƻ",
  "190": "Ƽ",
  "191": "ƽ",
  "192": "ƾ",
  "193": "ƿ",
  "194": "ǀ",
  "195": "ǁ",
  "196": "ǂ",
  "197": "ǃ",
  "198": "Ǆ",
  "199": "ǅ",
  "200": "ǆ",
  "201": "Ǉ",
  "202": "ǈ",
  "203": "ǉ",
  "204": "Ǌ",
  "205": "ǋ",
  "206": "ǌ",
  "207": "Ǎ",
  "208": "ǎ",
  "209": "Ǐ",
  "210": "ǐ",
  "211": "Ǒ",
  "212": "ǒ",
  "213": "Ǔ",
  "214": "ǔ",
  "215": "Ǖ",
  "216": "ǖ",
  "217": "Ǘ",
  "218": "ǘ",
  "219": "Ǚ",
  "220": "ǚ",
  "221": "Ǜ",
  "222": "ǜ",
  "223": "ǝ",
  "224": "Ǟ",
  "225": "ǟ",
  "226": "Ǡ",
  "227": "ǡ",
  "228": "Ǣ",
  "229": "ǣ",
  "230": "Ǥ",
  "231": "ǥ",
  "232": "Ǧ",
  "233": "ǧ",
  "234": "Ǩ",
  "235": "ǩ",
  "236": "Ǫ",
  "237": "ǫ",
  "238": "Ǭ",
  "239": "ǭ",
  "240": "Ǯ",
  "241": "ǯ",
  "242": "ǰ",
  "243": "Ǳ",
  "244": "ǲ",
  "245": "ǳ",
  "246": "Ǵ",
  "247": "ǵ",
  "248": "Ƕ",
  "249": "Ƿ",
  "250": "Ǹ",
  "251": "ǹ",
  "252": "Ǻ",
  "253": "ǻ",
  "254": "Ǽ",
  "255": "ǽ",
  "256": "Ǿ",
  "257": "ǿ",
  "258": "ťĠ",
  "259": "ŴĠ",
  "260": "ůĠ",
  "261": "šĠ",
  "262": "ũĠ",
  "263": "ųĠ",
  "264": "ŮĠ",
  "265": "ŲĠ",
  "266": "ŨĠ",
  "267": "ťť",
  "268": "ŬĠ",
  "269": "ŤĠ",
  "270": "ŵĠ",
  "271": "ťŴ",
  "272": "ťů",
  "273": "ŭĠ",
  "274": "ťš",
  "275": "ŹĠ",
  "276": "ťũ",
  "277": "ťų",
  "278": "ŴŴ",
  "279": "ťŮ",
  "280": "ŷĠ",
  "281": "ťŲ",
  "282": "ťŨ",
  "283": "ţĠ",
  "284": "ĬĠ",
  "285": "ůů",
  "286": "ŦĠ",
  "287": "ĮĠ",
  "288": "ůŴ",
  "289": "šŴ",
  "290": "ŧĠ",
  "291": "ůš",
  "292": "ũŴ",
  "293": "ťŬ",
  "294": "ŮŴ",
  "295": "ųŴ",
  "296": "ŢĠ",
  "297": "šš",
  "298": "ŨŴ",
  "299": "ŲŴ",
  "300": "ůũ",
  "301": "ŰĠ",
  "302": "ůų",
  "303": "ůŮ",
  "304": "ťŤ",
  "305": "ůŲ",
  "306": "ůŨ",
  "307": "šũ",
  "308": "šų",
  "309": "ťŵ",
  "310": "šŮ",
  "311": "šŲ",
  "312": "šŨ",
  "313": "ũũ",
  "314": "ųų",
  "315": "ŬŴ",
  "316": "ůť",
  "317": "Ůũ",
  "318": "Ųũ",
  "319": "ųŨ",
  "320": "ŮŨ",
  "321": "ųũ",
  "322": "ůŬ",
  "323": "ŲŨ",
  "324": "ťŭ",
  "325": "ŤŴ",
  "326": "ŶĠ",
  "327": "ŮŮ",
  "328": "ťťĠ",
  "329": "ŲŲ",
  "330": "šů",
  "331": "ūĠ",
  "332": "šŬ",
  "333": "ųŮ",
  "334": "ũŨ",
  "335": "ťŹ",
  "336": "ŵŴ",
  "337": "ŲŮ",
  "338": "ůŤ",
  "339": "ŨŨ",
  "340": "Ųų",
  "341": "šť",
  "342": "ħĠ",
  "343": "ũŮ",
  "344": "ŭŴ",
  "345": "ťŷ",
  "346": "šŤ",
  "347": "ũų",
  "348": "ťţ",
  "349": "ůŵ",
  "350": "Ůų",
  "351": "ťĬ",
  "352": "ŲŬ",
  "353": "ŴŨ",
  "354": "šŵ",
  "355": "ťŦ",
  "356": "ťĮ",
  "357": "ũŲ",
  "358": "ŬŨ",
  "359": "ťĠŴ",
  "360": "ťŴĠ",
  "361": "ųŲ",
  "362": "ŮŲ",
  "363": "ůŭ",
  "364": "ŤŨ",
  "365": "ŮŬ",
  "366": "ťůĠ",
  "367": "ŹŴ",
  "368": "ţŴ",
  "369": "ũŬ",
  "370": "ŷŴ",
  "371": "ųŬ",
  "372": "ťŧ",
  "373": "ũš",
  "374": "ųš",
  "375": "ůťĠ",
  "376": "ťšĠ",
  "377": "Ůš",
  "378": "ťŢ",
  "379": "ůŹ",
  "380": "ųŤ",
  "381": "Ųš",
  "382": "ũŤ",
  "383": "ĬŴ",
  "384": "ŵŨ",
  "385": "ůŷ",
  "386": "ŦŴ",
  "387": "ťŰ",
  "388": "ŲŤ",
  "389": "ůţ",
  "390": "ŭŨ",
  "391": "ŮŤ",
  "392": "ĮŴ",
  "393": "ťųĠ",
  "394": "ťũĠ",
  "395": "ŴĠŴ",
  "396": "ťŮĠ",
  "397": "ųů",
  "398": "Ųů",
  "399": "ťŨĠ",
  "400": "ťŲĠ",
  "401": "Ũũ",
  "402": "ųŵ",
  "403": "ŨŮ",
  "404": "šŭ",
  "405": "ůĠŴ",
  "406": "Ŭũ",
  "407": "šťĠ",
  "408": "ĻĠ",
  "409": "Ųŵ",
  "410": "Ůŵ",
  "411": "Ůů",
  "412": "ŧŴ",
  "413": "ũů",
  "414": "šŹ",
  "415": "ũŵ",
  "416": "šĠŴ",
  "417": "Ũų",
  "418": "ŨŬ",
  "419": "ŢŴ",
  "420": "šŷ",
  "421": "ŨŲ",
  "422": "šţ",
  "423": "ŨŤ",
  "424": "ůŦ",
  "425": "ŰŴ",
  "426": "ůĬ",
  "427": "ųŭ",
  "428": "ŬŮ",
  "429": "ŬŲ",
  "430": "ůĮ",
  "431": "ųťĠ",
  "432": "ũĠŴ",
  "433": "šĬ",
  "434": "Ųŭ",
  "435": "ųĠŴ",
  "436": "ũŭ",
  "437": "ŮĠŴ",
  "438": "Ůŭ",
  "439": "ųŹ",
  "440": "ůŴĠ",
  "441": "ŲĠŴ",
  "442": "ŬŬ",
  "443": "šŦ",
  "444": "šĮ",
  "445": "ũťĠ",
  "446": "Ũŵ",
  "447": "ŲťĠ",
  "448": "ŮťĠ",
  "449": "ůůĠ",
  "450": "ŬŤ",
  "451": "ũŹ",
  "452": "Ŭų",
  "453": "ťŶ",
  "454": "ůŧ",
  "455": "ŨĠŴ",
  "456": "ůšĠ",
  "457": "ťŬĠ",
  "458": "šŴĠ",
  "459": "ũţ",
  "460": "ŮŹ",
  "461": "ųŷ",
  "462": "šůĠ",
  "463": "ũŷ",
  "464": "ųţ",
  "465": "ŤŤ",
  "466": "ŲŹ",
  "467": "Ůţ",
  "468": "ťū",
  "469": "Ųţ",
  "470": "Ůŷ",
  "471": "šŧ",
  "472": "ũĬ",
  "473": "Ųŷ",
  "474": "ŮĬ",
  "475": "ůŢ",
  "476": "Ũŭ",
  "477": "Ŭŵ",
  "478": "ššĠ",
  "479": "ťŤĠ",
  "480": "ũŦ",
  "481": "ŮŦ",
  "482": "ŲĬ",
  "483": "ťĠŨ",
  "484": "šŢ",
  "485": "ųĬ",
  "486": "ųŦ",
  "487": "ůŰ",
  "488": "ųĮ",
  "489": "Ŭŭ",
  "490": "ŮĮ",
  "491": "ũĮ",
  "492": "šŰ",
  "493": "ťħ",
  "494": "ĿĠ",
  "495": "ťťŴ",
  "496": "ųŴĠ",
  "497": "ůŲĠ",
  "498": "ůũĠ",
  "499": "ŵŤ",
  "500": "ůųĠ",
  "501": "ŲĮ",
  "502": "ŮŴĠ",
  "503": "ũŴĠ",
  "504": "ťŵĠ",
  "505": "ŲŦ",
  "506": "ųůĠ",
  "507": "ŶŴ",
  "508": "ůŮĠ",
  "509": "ŬĠŴ",
  "510": "ŨťĠ",
  "511": "ůŨĠ",
  "512": "Ťŵ",
  "513": "šųĠ",
  "514": "ŨŹ",
  "515": "šũĠ",
  "516": "ũŧ",
  "517": "ŤŬ",
  "518": "ġĠ",
  "519": "šŮĠ",
  "520": "ŲŴĠ",
  "521": "Ũŷ",
  "522": "ųšĠ",
  "523": "ŮůĠ",
  "524": "ūŴ",
  "525": "šŲĠ",
  "526": "ųŧ",
  "527": "Ųŧ",
  "528": "šŨĠ",
  "529": "ŲůĠ",
  "530": "ũůĠ",
  "531": "Ũţ",
  "532": "Ůŧ",
  "533": "ťŭĠ",
  "534": "ŲšĠ",
  "535": "ŬťĠ",
  "536": "ŭŤ",
  "537": "ŨŦ",
  "538": "ũŢ",
  "539": "ŮšĠ",
  "540": "ųŢ",
  "541": "Ŭŷ",
  "542": "ŤĠŴ",
  "543": "ũšĠ",
  "544": "ŨĮ",
  "545": "ŵŵ",
  "546": "ĭĠ",
  "547": "ŮŢ",
  "548": "ŬŹ",
  "549": "Ŭţ",
  "550": "ŨĬ",
  "551": "ůťť",
  "552": "ųŰ",
  "553": "Ťũ",
  "554": "ŮŰ",
  "555": "Ťŭ",
  "556": "ťŴŴ",
  "557": "ŤŲ",
  "558": "Ũš",
  "559": "ųŮĠ",
  "560": "ħŴ",
  "561": "ŨŴĠ",
  "562": "ŵũ",
  "563": "ųũĠ",
  "564": "ŲŢ",
  "565": "ťŹĠ",
  "566": "ŲŰ",
  "567": "ŤťĠ",
  "568": "ŨůĠ",
  "569": "ųųĠ",
  "570": "ťůŴ",
  "571": "ŤŮ",
  "572": "ŬĬ",
  "573": "ŵŭ",
  "574": "ŤŹ",
  "575": "ųŲĠ",
  "576": "ůŬĠ",
  "577": "ũŰ",
  "578": "ŬĮ",
  "579": "ŮũĠ",
  "580": "ũŨĠ",
  "581": "ŲũĠ",
  "582": "ŲųĠ",
  "583": "ũŮĠ",
  "584": "ŲŮĠ",
  "585": "ŵĠŴ",
  "586": "ŮŮĠ",
  "587": "ųŨĠ",
  "588": "ţŨ",
  "589": "Ŭš",
  "590": "ŬŴĠ",
  "591": "ŷŨ",
  "592": "ůŶ",
  "593": "ťŷĠ",
  "594": "ŮųĠ",
  "595": "ũųĠ",
  "596": "ůū",
  "597": "ŬŦ",
  "598": "ŲŨĠ",
  "599": "ũũĠ",
  "600": "ŭŵ",
  "601": "ũŲĠ",
  "602": "ŤĬ",
  "603": "ťţĠ",
  "604": "Ťţ",
  "605": "ŬůĠ",
  "606": "ŵťĠ",
  "607": "Ťų",
  "608": "Ťŷ",
  "609": "ŲŲĠ",
  "610": "ŮŲĠ",
  "611": "ŮŨĠ",
  "612": "ůŤĠ",
  "613": "ŦŨ",
  "614": "ŭĠŴ",
  "615": "šťť",
  "616": "ŭŭ",
  "617": "ťĠŵ",
  "618": "ŹŨ",
  "619": "ťŦĠ",
  "620": "ťĬĠ",
  "621": "ťšŴ",
  "622": "ĬŨ",
  "623": "Ŭŧ",
  "624": "ůťŴ",
  "625": "ŤŦ",
  "626": "ŵŹ",
  "627": "šŶ",
  "628": "ŵŷ",
  "629": "šŬĠ",
  "630": "ŤĮ",
  "631": "ŬšĠ",
  "632": "ŵų",
  "633": "ŨŢ",
  "634": "ťũŴ",
  "635": "ŬŢ",
  "636": "ŤŴĠ",
  "637": "šū",
  "638": "Ũŧ",
  "639": "ŵţ",
  "640": "ŨšĠ",
  "641": "ťŨŴ",
  "642": "ťĻ",
  "643": "ůŵĠ",
  "644": "ůħ",
  "645": "ťĮĠ",
  "646": "ŭťĠ",
  "647": "ťųŴ",
  "648": "ŵŮ",
  "649": "ŵŬ",
  "650": "ťŮŴ",
  "651": "ŸĠ",
  "652": "ŵŲ",
  "653": "ťŧĠ",
  "654": "ŭų",
  "655": "ťĠŤ",
  "656": "šŤĠ",
  "657": "ŭũ",
  "658": "ĮŨ",
  "659": "ůĠŨ",
  "660": "ŭŹ",
  "661": "ũťť",
  "662": "ťŲŴ",
  "663": "ŵĬ",
  "664": "ŭŲ",
  "665": "ŴĠŨ",
  "666": "ůťů",
  "667": "Ťŧ",
  "668": "ŹĠŴ",
  "669": "ŬũĠ",
  "670": "Ůťť",
  "671": "šħ",
  "672": "ŤůĠ",
  "673": "ŵŦ",
  "674": "ůťš",
  "675": "ŴŴŴ",
  "676": "ŵĮ",
  "677": "ŭĬ",
  "678": "ŬŰ",
  "679": "ųťť",
  "680": "ŲŶ",
  "681": "ťĠŹ",
  "682": "ŭŷ",
  "683": "ŪĠ",
  "684": "ŭţ",
  "685": "ŭŮ",
  "686": "ũŬĠ",
  "687": "Ųťť",
  "688": "ųŶ",
  "689": "ťĠťĠ",
  "690": "ŵŴĠ",
  "691": "ŷĠŴ",
  "692": "ůŭĠ",
  "693": "šĠŨ",
  "694": "ŬŮĠ",
  "695": "šťů",
  "696": "ŧŨ",
  "697": "ťĠţ",
  "698": "šťŴ",
  "699": "ĬĠŴ",
  "700": "ŭŦ",
  "701": "ĻŴ",
  "702": "ŬŲĠ",
  "703": "ŤŢ",
  "704": "ŨŰ",
  "705": "ţĠŴ",
  "706": "ŮŬĠ",
  "707": "ŬųĠ",
  "708": "ũŶ",
  "709": "ţŹ",
  "710": "ŨũĠ",
  "711": "ųŬĠ",
  "712": "ůůŴ",
  "713": "ųū",
  "714": "ŲŬĠ",
  "715": "ťĠŷ",
  "716": "ŬŨĠ",
  "717": "ŨŮĠ",
  "718": "ŦĠŴ",
  "719": "ŨŲĠ",
  "720": "ŨŨĠ",
  "721": "ťŢĠ",
  "722": "ŹŹ",
  "723": "ŤũĠ",
  "724": "ŨųĠ",
  "725": "ťĠŮ",
  "726": "ŵůĠ",
  "727": "Źŷ",
  "728": "ŤŰ",
  "729": "ŭĮ",
  "730": "ŲŤĠ",
  "731": "ŭůĠ",
  "732": "ťŰĠ",
  "733": "ŤšĠ",
  "734": "Ųū",
  "735": "ŮŶ",
  "736": "šŵĠ",
  "737": "ũū",
  "738": "ťĠĬ",
  "739": "šŭĠ",
  "740": "ųŤĠ",
  "741": "ůťũ",
  "742": "ĮĠŴ",
  "743": "ŵšĠ",
  "744": "Ůū",
  "745": "ŷŷ",
  "746": "ŭŴĠ",
  "747": "ŵŢ",
  "748": "ůťŮ",
  "749": "ŵŧ",
  "750": "ţţ",
  "751": "ŭŬ",
  "752": "ŹťĠ",
  "753": "ůŴŴ",
  "754": "ŹĬ",
  "755": "ŤųĠ",
  "756": "ŹŦ",
  "757": "šťš",
  "758": "ŤŨĠ",
  "759": "ůŷĠ",
  "760": "ťĠũ",
  "761": "ůťŨ",
  "762": "ŭŧ",
  "763": "Źũ",
  "764": "ŮŤĠ",
  "765": "ţŷ",
  "766": "ťĠų",
  "767": "ťĠŬ",
  "768": "ťĠĮ",
  "769": "ŤŲĠ",
  "770": "ůťų",
  "771": "ŧĠŴ",
  "772": "ťĠŦ",
  "773": "Źŵ",
  "774": "Ťš",
  "775": "ŹŮ",
  "776": "ŹĮ",
  "777": "ŷũ",
  "778": "ůťŲ",
  "779": "ųħ",
  "780": "ŭšĠ",
  "781": "ůŹĠ",
  "782": "ťŬŴ",
  "783": "ŹŬ",
  "784": "ŷĬ",
  "785": "ŰŨ",
  "786": "ţũ",
  "787": "šťũ",
  "788": "ŵũĠ",
  "789": "ŲťŴ",
  "790": "ţŮ",
  "791": "Ŧŷ",
  "792": "Ĭũ",
  "793": "Źų",
  "794": "ţŬ",
  "795": "ŵŮĠ",
  "796": "Ĭŷ",
  "797": "ťĠŴĠ",
  "798": "ţŤ",
  "799": "Ųħ",
  "800": "ůĬĠ",
  "801": "ŢŨ",
  "802": "ĬŦ",
  "803": "šŴŴ",
  "804": "ŵŰ",
  "805": "ũħ",
  "806": "ųťŴ",
  "807": "Ůħ",
  "808": "ţŦ",
  "809": "ůŦĠ",
  "810": "ŢĠŴ",
  "811": "űĠ",
  "812": "ŹŤ",
  "813": "ųĠŨ",
  "814": "Įŷ",
  "815": "ťĿ",
  "816": "ũŤĠ",
  "817": "ťĠšĠ",
  "818": "ţŴĠ",
  "819": "ŭũĠ",
  "820": "šťų",
  "821": "ĮŤ",
  "822": "ŮŵĠ",
  "823": "ťĠŲ",
  "824": "ŭŢ",
  "825": "Ůťů",
  "826": "ťĠůĠ",
  "827": "ŴĠŷ",
  "828": "ŵųĠ",
  "829": "ŵŲĠ",
  "830": "ĬĬ",
  "831": "šťŨ",
  "832": "ŤŮĠ",
  "833": "ŵŨĠ",
  "834": "ůŮŴ",
  "835": "ůĻ",
  "836": "ţų",
  "837": "ůšŴ",
  "838": "ŷų",
  "839": "ũťŴ",
  "840": "šŹĠ",
  "841": "ŭŰ",
  "842": "Ŭťť",
  "843": "ŹůĠ",
  "844": "ĮŦ",
  "845": "ţŲ",
  "846": "Ĭų",
  "847": "ŭŮĠ",
  "848": "ŮťŴ",
  "849": "ššŴ",
  "850": "ůũŴ",
  "851": "Źţ",
  "852": "šůŴ",
  "853": "Ũťť",
  "854": "ŭųĠ",
  "855": "ŬŬĠ",
  "856": "ůţĠ",
  "857": "ŹŢ",
  "858": "šťŮ",
  "859": "ĮŲ",
  "860": "Źŧ",
  "861": "ųŵĠ",
  "862": "šťŲ",
  "863": "ŹŲ",
  "864": "Įũ",
  "865": "ĮĬ",
  "866": "ŭŲĠ",
  "867": "ĮŮ",
  "868": "ťŤŴ",
  "869": "ťĠŢ",
  "870": "ůĮĠ",
  "871": "ţĬ",
  "872": "ŮĠŨ",
  "873": "šĬĠ",
  "874": "ŲŵĠ",
  "875": "Ŧũ",
  "876": "ŴĠŤ",
  "877": "ŰĠŴ",
  "878": "ţŵ",
  "879": "ŷŤ",
  "880": "ųťů",
  "881": "ůŲŴ",
  "882": "ŦŮ",
  "883": "ŬŶ",
  "884": "ŭŨĠ",
  "885": "šţĠ",
  "886": "ŷĮ",
  "887": "ťĠũĠ",
  "888": "ťĠŧ",
  "889": "ťġ",
  "890": "šůů",
  "891": "ĬŮ",
  "892": "ŹŴĠ",
  "893": "Ųťů",
  "894": "ůťŬ",
  "895": "ũĠŨ",
  "896": "ĬŬ",
  "897": "ųťš",
  "898": "ũŵĠ",
  "899": "ũťů",
  "900": "ťŶĠ",
  "901": "šŷĠ",
  "902": "ĬŤ",
  "903": "ŲĠŨ",
  "904": "ůŨŴ",
  "905": "ťĠŭ",
  "906": "ŹšĠ",
  "907": "ŷŦ",
  "908": "ŧŤ",
  "909": "ţĮ",
  "910": "Ųťš",
  "911": "ţůĠ",
  "912": "ůųŴ",
  "913": "ţŧ",
  "914": "ŦŦ",
  "915": "šůš",
  "916": "ŹųĠ",
  "917": "ŴĠŮ",
  "918": "ŷŮ",
  "919": "ųťũ",
  "920": "ťĭ",
  "921": "ţšĠ",
  "922": "ťĠųĠ",
  "923": "Ŭū",
  "924": "Źŭ",
  "925": "ŨŶ",
  "926": "ųŭĠ",
  "927": "ũťš",
  "928": "ĬŲ",
  "929": "šĠŦ",
  "930": "ŷŬ",
  "931": "ŴĠŬ",
  "932": "Ĭŧ",
  "933": "ŴĠůĠ",
  "934": "ŴĠŦ",
  "935": "ůŧĠ",
  "936": "ĬůĠ",
  "937": "šŦĠ",
  "938": "ţŢ",
  "939": "ĮůĠ",
  "940": "ŨĠŨ",
  "941": "ťĠŮĠ",
  "942": "ŦŤ",
  "943": "ĮŬ",
  "944": "ŷůĠ",
  "945": "ųťų",
  "946": "ŲŭĠ",
  "947": "ţŭ",
  "948": "ųŴŴ",
  "949": "ůŢĠ",
  "950": "ŹũĠ",
  "951": "ŷŴĠ",
  "952": "Ůťš",
  "953": "ũťũ",
  "954": "ŨŬĠ",
  "955": "ĬšĠ",
  "956": "ŷŧ",
  "957": "ũŭĠ",
  "958": "ųťŮ",
  "959": "ůťŤ",
  "960": "ťŵŴ",
  "961": "Ŧŧ",
  "962": "Įŵ",
  "963": "šůũ",
  "964": "ŹŰ",
  "965": "ŷŵ",
  "966": "ťťŨ",
  "967": "ťĠŰ",
  "968": "ŹŨĠ",
  "969": "ťūĠ",
  "970": "ťĠŲĠ",
  "971": "ŮŭĠ",
  "972": "ŦůĠ",
  "973": "šůŲ",
  "974": "ŷŭ",
  "975": "šųŴ",
  "976": "šĻ",
  "977": "ĮšĠ",
  "978": "ŹŮĠ",
  "979": "šůŮ",
  "980": "Įŧ",
  "981": "ŤŬĠ",
  "982": "ũĠŬ",
  "983": "šĮĠ",
  "984": "ĮŴĠ",
  "985": "Ĭŵ",
  "986": "Ĭŭ",
  "987": "Ŧŵ",
  "988": "šũŴ",
  "989": "ĿŴ",
  "990": "ŷŲ",
  "991": "ţųĠ",
  "992": "ţťĠ",
  "993": "ŢŤ",
  "994": "ĬŴĠ",
  "995": "ŬŤĠ",
  "996": "ŷťĠ",
  "997": "šťŬ",
  "998": "ůĠŤ",
  "999": "ŦŴĠ",
  "1000": "ţũĠ",
  "1001": "ŷŢ",
  "1002": "ĬŹ",
  "1003": "šŮŴ",
  "1004": "ŧůĠ",
  "1005": "ũĬĠ",
  "1006": "ţŰ",
  "1007": "šĠŤ",
  "1008": "ůŰĠ",
  "1009": "ũŴŴ",
  "1010": "ŧŬ",
  "1011": "ųůŴ",
  "1012": "ųťŨ",
  "1013": "Ũū",
  "1014": "ĮŢ",
  "1015": "Ųťũ",
  "1016": "šŲŴ",
  "1017": "ŦŬ",
  "1018": "ůťŵ",
  "1019": "ţŨĠ",
  "1020": "ųůů",
  "1021": "ųšŴ",
  "1022": "ũŹĠ",
  "1023": "ũŦĠ",
  "1024": "ųŷĠ",
  "1025": "ũťŮ",
  "1026": "ůĠŮ",
  "1027": "ĮťĠ",
  "1028": "ŷšĠ",
  "1029": "ĬťĠ",
  "1030": "ŲťŲ",
  "1031": "ųťŲ",
  "1032": "ŨŤĠ",
  "1033": "ťŭŴ",
  "1034": "šŨŴ",
  "1035": "Įŭ",
  "1036": "ĮŹ",
  "1037": "ũůŴ",
  "1038": "ŦŰ",
  "1039": "šĠŵ",
  "1040": "ŴĠŵ",
  "1041": "ĮŰ",
  "1042": "ŲŴŴ",
  "1043": "Ųťų",
  "1044": "ŤŶ",
  "1045": "ŷųĠ",
  "1046": "ŲůŴ",
  "1047": "ŲťŨ",
  "1048": "ŷţ",
  "1049": "ŴĠŭ",
  "1050": "ůĿ",
  "1051": "ŦŢ",
  "1052": "ůŬŴ",
  "1053": "ŵťť",
  "1054": "ŲţĠ",
  "1055": "ůĠŧ",
  "1056": "ĬŰ",
  "1057": "ŴĠšĠ",
  "1058": "ųŹĠ",
  "1059": "ũťŲ",
  "1060": "ťħĠ",
  "1061": "ĮųĠ",
  "1062": "ŷŮĠ",
  "1063": "ŷũĠ",
  "1064": "ŦšĠ",
  "1065": "šůų",
  "1066": "ŲťŮ",
  "1067": "Ůůů",
  "1068": "ũťŨ",
  "1069": "ťĠŨĠ",
  "1070": "šŢĠ",
  "1071": "ĮŮĠ",
  "1072": "ĬųĠ",
  "1073": "Ůťų",
  "1074": "ŲŹĠ",
  "1075": "ŮŴŴ",
  "1076": "Ũħ",
  "1077": "ĬŲĠ",
  "1078": "ŮťŲ",
  "1079": "Ůťũ",
  "1080": "ŮŹĠ",
  "1081": "Ťū",
  "1082": "ţŮĠ",
  "1083": "ŷŹ",
  "1084": "ŷŲĠ",
  "1085": "ůĠůĠ",
  "1086": "ŭťť",
  "1087": "šŧĠ",
  "1088": "ũťų",
  "1089": "ųţĠ",
  "1090": "ĬŢ",
  "1091": "ŧŵ",
  "1092": "ĬŨĠ",
  "1093": "ųĬĠ",
  "1094": "ůĠŵ",
  "1095": "ŦŹ",
  "1096": "šůŨ",
  "1097": "ĮũĠ",
  "1098": "Ĭţ",
  "1099": "ŴĠŢ",
  "1100": "ũůů",
  "1101": "ŷŰ",
  "1102": "ŶĠŴ",
  "1103": "ųůš",
  "1104": "ůĠŹ",
  "1105": "ŬťŴ",
  "1106": "ĬŮĠ",
  "1107": "ŴĠŧ",
  "1108": "ŲŷĠ",
  "1109": "Ůůš",
  "1110": "ŦũĠ",
  "1111": "ŬĠŨ",
  "1112": "ũŷĠ",
  "1113": "ťťĠŴ",
  "1114": "ťĠťť",
  "1115": "Ťťť",
  "1116": "ŴĠŹ",
  "1117": "ťŹŴ",
  "1118": "ĮŨĠ",
  "1119": "šŰĠ",
  "1120": "ŴĠŰ",
  "1121": "ųŦĠ",
  "1122": "ŬŵĠ",
  "1123": "ŤŤĠ",
  "1124": "ŵŤĠ",
  "1125": "Ųůů",
  "1126": "ŦťĠ",
  "1127": "ĬĮ",
  "1128": "ŶŨ",
  "1129": "ųĮĠ",
  "1130": "ũţĠ",
  "1131": "Ţŧ",
  "1132": "Ťħ",
  "1133": "ġŴ",
  "1134": "ũůš",
  "1135": "Ŧŭ",
  "1136": "ŲĠŬ",
  "1137": "šťŤ",
  "1138": "Ųšš",
  "1139": "ūŨ",
  "1140": "ŴĠŮĠ",
  "1141": "ŮţĠ",
  "1142": "ŮšŴ",
  "1143": "ŮŷĠ",
  "1144": "Ŭťů",
  "1145": "Ŧţ",
  "1146": "ĬũĠ",
  "1147": "ŲĮĠ",
  "1148": "ŲĬĠ",
  "1149": "Ŭħ",
  "1150": "ŦųĠ",
  "1151": "ŷŨĠ",
  "1152": "ŴĠţ",
  "1153": "ŲšŴ",
  "1154": "ŧŭ",
  "1155": "ĭŴ",
  "1156": "ŴĠųĠ",
  "1157": "ŮůŴ",
  "1158": "ũůų",
  "1159": "ŵŬĠ",
  "1160": "ťŸ",
  "1161": "ĮĮ",
  "1162": "ŹŲĠ",
  "1163": "ũšš",
  "1164": "ŨŵĠ",
  "1165": "ŧšĠ",
  "1166": "ţŲĠ",
  "1167": "ũšŴ",
  "1168": "Ųůš",
  "1169": "ūĠŴ",
  "1170": "ųŮŴ",
  "1171": "ŮĠŤ",
  "1172": "Ţŵ",
  "1173": "šůť",
  "1174": "ŴĠĮ",
  "1175": "ůĠŬ",
  "1176": "ŭŶ",
  "1177": "ŭŬĠ",
  "1178": "Ũťů",
  "1179": "ŢŬ",
  "1180": "ůĠšĠ",
  "1181": "ŮŦĠ",
  "1182": "ŦŨĠ",
  "1183": "ųĠŤ",
  "1184": "ųĻ",
  "1185": "ŢŰ",
  "1186": "ŧŧ",
  "1187": "ũĠŤ",
  "1188": "ŨťŴ",
  "1189": "ŢųĠ",
  "1190": "ŴĠťĠ",
  "1191": "ŴĠĬ",
  "1192": "ŮťŮ",
  "1193": "ŮťŨ",
  "1194": "ĺĠ",
  "1195": "ŵū",
  "1196": "ůĠųĠ",
  "1197": "ŦĮ",
  "1198": "ųųŴ",
  "1199": "ŲŦĠ",
  "1200": "ũĻ",
  "1201": "ŧŰ",
  "1202": "Ŭťš",
  "1203": "ŦŲĠ",
  "1204": "šĠŹ",
  "1205": "ųũŴ",
  "1206": "ůĠťĠ",
  "1207": "ũĮĠ",
  "1208": "ŵŶ",
  "1209": "ŧŮĠ",
  "1210": "ŦĬ",
  "1211": "Įţ",
  "1212": "ŮĬĠ",
  "1213": "šťŵ",
  "1214": "ųůŮ",
  "1215": "ŲĠŤ",
  "1216": "ŧťĠ",
  "1217": "ũůũ",
  "1218": "ŦŲ",
  "1219": "ųůų",
  "1220": "ůŤŴ",
  "1221": "ũĠšĠ",
  "1222": "ųšš",
  "1223": "Ůšš",
  "1224": "ŨĠŤ",
  "1225": "ŧŢ",
  "1226": "ųŨŴ",
  "1227": "ŰŤ",
  "1228": "ůĠũ",
  "1229": "ůĠţ",
  "1230": "ŧţ",
  "1231": "ŦŮĠ",
  "1232": "ťŷŴ",
  "1233": "ŤĠŨ",
  "1234": "ŴĠũĠ",
  "1235": "ůĠŭ",
  "1236": "ůĠĬ",
  "1237": "šĠŬ",
  "1238": "Űŵ",
  "1239": "ĮŲĠ",
  "1240": "ŴĠũ",
  "1241": "ŮĮĠ",
  "1242": "ŴĠŲĠ",
  "1243": "ŮŧĠ",
  "1244": "ŨĠŬ",
  "1245": "ŧŹ",
  "1246": "ťĠŬĠ",
  "1247": "ťĠū",
  "1248": "Ųůũ",
  "1249": "ũĠŹ",
  "1250": "šŬŴ",
  "1251": "ůĠŰ",
  "1252": "ŮŮŴ",
  "1253": "ŴĠŨĠ",
  "1254": "ůĠŷ",
  "1255": "ŧŷ",
  "1256": "šĠŭ",
  "1257": "ħĠŴ"
}