{"[UNK]":0,"[PAD]":1,"[BOS]":2,"[EOS]":3,"!":4,"\"":5,"'":6,"(":7,")":8,",":9,"-":10,".":11,"0":12,"1":13,"2":14,"3":15,"4":16,"5":17,"6":18,"7":19,"8":20,"9":21,":":22,";":23,"?":24,"a":25,"b":26,"c":27,"d":28,"e":29,"f":30,"g":31,"h":32,"i":33,"j":34,"k":35,"l":36,"m":37,"n":38,"o":39,"p":40,"q":41,"r":42,"s":43,"t":44,"u":45,"v":46,"w":47,"x":48,"y":49,"z":50,"Ġ":51,"Ġe":52,"Ġt":53,"Ġo":54,"Ġa":55,"Ġi":56,"Ġs":57,"Ġn":58,"Ġr":59,"Ġh":60,"ee":61,"Ġl":62,"ĠĠ":63,"Ġd":64,"Ġu":65,"et":66,"eo":67,"Ġm":68,"ea":69,"Ġy":70,"ei":71,"es":72,"tt":73,"en":74,"Ġw":75,"er":76,"Ġc":77,"eh":78,"Ġ,":79,"oo":80,"Ġf":81,"Ġ.":82,"ot":83,"at":84,"Ġg":85,"oa":86,"it":87,"el":88,"nt":89,"st":90,"Ġb":91,"aa":92,"ht":93,"rt":94,"oi":95,"os":96,"Ġp":97,"on":98,"or":99,"ed":100,"oh":101,"ai":102,"as":103,"an":104,"eu":105,"ar":106,"ah":107,"ii":108,"lt":109,"ss":110,"em":111,"hn":112,"in":113,"ir":114,"sn":115,"ao":116,"hr":117,"Ġv":118,"sr":119,"dt":120,"ol":121,"oe":122,"Ġk":123,"ih":124,"is":125,"ae":126,"nn":127,"hh":128,"al":129,"rr":130,"ut":131,"od":132,"sh":133,"ey":134,"rn":135,"Ġ'":136,"si":137,"ew":138,"ec":139,"mt":140,"Ġet":141,"ou":142,"ad":143,"hi":144,"nr":145,"ef":146,"hs":147,"au":148,"ln":149,"lr":150,"tr":151,"tn":152,"om":153,"ni":154,"sl":155,"sa":156,"eg":157,"dr":158,"ia":159,"il":160,"so":161,"nh":162,"yt":163,"io":164,"sd":165,"wt":166,"ha":167,"id":168,"ct":169,"eb":170,"hl":171,"ĠĠĠ":172,"hd":173,"ho":174,"ur":175,"nl":176,"ep":177,"am":178,"Ġtt":179,"ns":180,"ft":181,"Ġer":182,"oy":183,"Ġot":184,"iu":185,"ow":186,"na":187,"se":188,"ie":189,"su":190,"Ġ;":191,"oc":192,"hu":193,"mr":194,"nd":195,"Ġat":196,"ay":197,"he":198,"no":199,"gt":200,"rl":201,"aw":202,"nu":203,"im":204,"sm":205,"ac":206,"of":207,"ll":208,"rs":209,"rd":210,"bt":211,"Ġit":212,"ne":213,"rh":214,"Ġst":215,"pt":216,"iy":217,"Ġnt":218,"Ġht":219,"iw":220,"hm":221,"af":222,"ls":223,"ic":224,"Ġrt":225,"ld":226,"Ġen":227,"lh":228,"ri":229,"ro":230,"ra":231,"ru":232,"sy":233,"sw":234,"re":235,"dn":236,"lo":237,"la":238,"li":239,"Ġeh":240,"Ġed":241,"sc":242,"if":243,"lu":244,"nm":245,"og":246,"Ġes":247,"Ġeu":248,"le":249,"dh":250,"Ġei":251,"Ġea":252,"rm":253,"hw":254,"hy":255,"sf":256,"ny":257,"dd":258,"Ġ?":259,"hc":260,"ob":261,"Ġee":262,"lm":263,"Ġlt":264,"nc":265,"op":266,"nw":267,"ag":268,"ab":269,"Ġtr":270,"du":271,"di":272,"Ġor":273,"Ġeo":274,"eet":275,"hf":276,"ap":277,"vt":278,"Ġel":279,"de":280,"ds":281,"kt":282,"Ġem":283,"Ġ!":284,"do":285,"nf":286,"ig":287,"Ġdt":288,"ry":289,"ev":290,"un":291,"'t":292,"rw":293,"da":294,"rc":295,"sg":296,"dl":297,"dm":298,"ui":299,"ly":300,"Ġtn":301,"ib":302,"Ġey":303,"Ġ-":304,"Ġth":305,"ek":306,"us":307,"uh":308,"ua":309,"Ġew":310,"lw":311,"ue":312,"Ġon":313,"Ġti":314,"Ġts":315,"lc":316,"Ġar":317,"um":318,"Ġec":319,"uo":320,"hg":321,"sb":322,"Ġut":323,"dy":324,"ett":325,"mn":326,"hb":327,"Ġta":328,"ip":329,"Ġan":330,"rf":331,"Ġto":332,"Ġos":333,"eot":334,"Ġte":335,"ud":336,"Ġoh":337,"Ġoi":338,"'s":339,"lf":340,"Ġoa":341,"yn":342,"Ġoe":343,"ms":344,"oee":345,"mi":346,"dc":347,"Ġah":348,"Ġef":349,"Ġir":350,"Ġas":351,"Ġae":352,"wr":353,"ys":354,"yr":355,"Ġao":356,"Ġmt":357,"ul":358,",,":359,"me":360,"Ġai":361,"cn":362,"wn":363,"Ġaa":364,"Ġoo":365,"cr":366,"Ġtl":367,"mh":368,"mo":369,"Ġhr":370,"sp":371,"Ġnn":372,"ma":373,"Ġsr":374,"Ġtd":375,"gn":376,"Ġsn":377,"Ġol":378,"Ġhn":379,"wi":380,"Ġin":381,"ws":382,"Ġnr":383,"yi":384,"Ġih":385,"fn":386,"fr":387,"Ġou":388,"Ġii":389,"Ġrn":390,"we":391,"ya":392,"gr":393,"wa":394,"eat":395,"Ġod":396,"ci":397,"Ġtu":398,"wh":399,"yo":400,"ye":401,".,":402,"wo":403,"Ġrr":404,"Ġss":405,"Ġni":406,"Ġsa":407,"ca":408,"Ġsi":409,"uu":410,"Ġie":411,"co":412,"Ġra":413,"Ġns":414,"Ġeg":415,"Ġsh":416,",.":417,"Ġso":418,"Ġis":419,"br":420,"ch":421,"Ġal":422,"md":423,"eit":424,"Ġia":425,"yh":426,"Ġri":427,"Ġhh":428,"cs":429,"Ġad":430,"ce":431,"Ġse":432,"..":433,"Ġnh":434,"Ġct":435,"ml":436,"fi":437,"Ġho":438,"fs":439,"Ġna":440,"est":441,"Ġhi":442,"Ġrs":443,"Ġx":444,"mu":445,"Ġhe":446,"Ġep":447,"gh":448,"gs":449,"Ġre":450,"ge":451,"Ġro":452,"eht":453,"fh":454,"fe":455,"fa":456,"Ġwt":457,"bn":458,"Ġne":459,"Ġtm":460,"ga":461,"go":462,"Ġno":463,"bs":464,"fo":465,"wd":466,"Ġty":467,"cl":468,"Ġyt":469,"ent":470,"Ġil":471,"bi":472,"Ġio":473,"pr":474,"Ġrh":475,"Ġau":476,"Ġhs":477,"Ġha":478,"ert":479,"gi":480,"Ġom":481,"yd":482,"ttt":483,"Ġj":484,"Ġft":485,"yl":486,"mm":487,"Ġtc":488,"pi":489,"pn":490,"ba":491,"Ġnd":492,"be":493,"Ġid":494,"bh":495,"yu":496,"wl":497,"Ġhl":498,"ps":499,"Ġsl":500,"bo":501,"Ġsd":502,"Ġrl":503,"fl":504,"ph":505,"Ġiu":506,"Ġrd":507,"Ġhd":508,"pa":509,"wu":510,"Ġnu":511,"Ġnl":512,"Ġam":513,"vr":514,"cd":515,"fd":516,"fu":517,"oot":518,"Ġln":519,"Ġru":520,"po":521,"Ġoy":522,"Ġsu":523,"gd":524,"Ġhu":525,"Ġlr":526,"pe":527,"eer":528,"cu":529,"wm":530,"'d":531,"vn":532,"gl":533,"Ġeb":534,"een":535,"ok":536,"ym":537,"Ġim":538,"aee":539,"gu":540,"Ġtw":541,"Ġgt":542,"Ġof":543,"Ġow":544,"cm":545,"Ġnm":546,"Ġay":547,"Ġtf":548,"Ġbt":549,"Ġls":550,"pd":551,"ov":552,"Ġle":553,"bl":554,"Ġli":555,"Ġac":556,"bd":557,"pu":558,"ĠĠĠĠ":559,"Ġrm":560,"Ġhm":561,"eei":562,"ak":563,"Ġoc":564,"Ġlh":565,"Ġsm":566,"Ġlo":567,"bu":568,"Ġq":569,"pl":570,"Ġaw":571,"vh":572,"Ġla":573,"gm":574,"vs":575,"va":576,"Ġiy":577,"Ġhy":578,"vi":579,"elt":580,"fm":581,"Ġun":582,"Ġdi":583,"Ġdr":584,"ww":585,"eee":586,"Ġds":587,"Ġsy":588,"kn":589,"ve":590,"kr":591,"ees":592,"ke":593,"eeh":594,"oet":595,"eea":596,"cy":597,"ki":598,"Ġde":599,"Ġdh":600,"Ġpt":601,"wy":602,"Ġny":603,"Ġur":604,"Ġaf":605,"Ġld":606,"Ġdn":607,"Ġtg":608,"ks":609,"Ġll":610,"bm":611,"hp":612,"Ġic":613,"edt":614,"fy":615,"uy":616,"eor":617,"ng":618,"Ġsc":619,"Ġrc":620,"dw":621,"eeo":622,"ka":623,"Ġry":624,"Ġda":625,"Ġui":626,"etr":627,"pm":628,"vo":629,"Ġnc":630,"Ġog":631,"Ġhw":632,"vl":633,"etn":634,"vd":635,"Ġsw":636,"eel":637,"Ġiw":638,"eed":639,"Ġmn":640,"Ġrw":641,"by":642,"rg":643,"Ġhc":644,"eon":645,"kh":646,"Ġuh":647,"Ġdo":648,"'m":649,"uc":650,"Ġnw":651,"my":652,"Ġif":653,"Ġus":654,"Ġnf":655,"Ġmr":656,"lg":657,"Ġtb":658,"Ġtp":659,"Ġop":660,"eti":661,"Ġhf":662,"ets":663,"kl":664,"ko":665,"uw":666,"eoa":667,"Ġua":668,"yy":669,"Ġeee":670,"eth":671,"Ġag":672,"fw":673,"Ġdl":674,"np":675,"Ġsf":676,"Ġob":677,"Ġdd":678,"ete":679,"ear":680,"nb":681,"mw":682,"gc":683,"gy":684,"fc":685,"eta":686,"Ġev":687,"Ġlu":688,"eoi":689,"Ġap":690,"eos":691,"Ġab":692,"Ġlm":693,"Ġuo":694,"eir":695,"eut":696,"eoh":697,"kd":698,"eai":699,"Ġmi":700,"Ġyr":701,"lb":702,"eoe":703,"Ġmh":704,"eas":705,"cw":706,"av":707,"ts":708,"Ġue":709,"Ġms":710,"eao":711,"Ġmo":712,"Ġrf":713,"Ġig":714,"Ġsg":715,"df":716,"Ġng":717,"Ġme":718,"Ġeet":719,"Ġyn":720,"mc":721,"yw":722,"Ġma":723,"ku":724,"eeu":725,"Ġdu":726,"eae":727,"'.":728,"Ġud":729,"esr":730,"Ġrg":731,"iee":732,"eoo":733,"Ġwn":734,"emt":735,"ean":736,"ein":737,"yf":738,"Ġvt":739,"cc":740,"uf":741,"err":742,"dg":743,"Ġlw":744,"Ġyi":745,"eaa":746,"Ġcr":747,"Ġek":748,"ens":749,"vu":750,"ess":751,"Ġye":752,"enr":753,"lp":754,"bc":755,"Ġnp":756,"eem":757,"enn":758,"ehr":759,"',":760,"yc":761,"oeo":762,"Ġnb":763,"enh":764,"pc":765,"Ġdm":766,"gw":767,"Ġyh":768,"Ġws":769,"otn":770,"Ġsb":771,"Ġul":772,"etd":773,"eni":774,"th":775,"ttr":776,"Ġib":777,"Ġmd":778,"Ġfr":779,"wc":780,"Ġrb":781,"Ġlc":782,"Ġwe":783,"ern":784,"Ġyo":785,"eii":786,"ta":787,"te":788,"eah":789,"pw":790,"Ġly":791,"ene":792,"esn":793,"oor":794,"Ġuu":795,"eto":796,"Ġett":797,"ese":798,"see":799,"ff":800,"Ġwr":801,"atr":802,",'":803,"Ġcn":804,"db":805,"eih":806,"ehn":807,"ott":808,"py":809,"etl":810,"Ġys":811,"Ġhg":812,"eou":813,"eie":814,"km":815,"vm":816,"eol":817,"eia":818,"esh":819,"ate":820,"atn":821,"bw":822,"to":823,"Ġfn":824,"tl":825,"otr":826,"Ġum":827,"esa":828,"Ġci":829,"ehi":830,"hee":831,"esi":832,"ttn":833,"oon":834,"eod":835,"eis":836,"ti":837,"eho":838,"era":839,"pf":840,"ehh":841,"ug":842,"ers":843,"Ġ:":844,"Ġya":845,"eri":846,"ats":847,"Ġcs":848,"Ġip":849,"Ġrp":850,"ehe":851,"Ġch":852,"wf":853,"Ġtee":854,"Ġlf":855,"erh":856,"Ġfh":857,"vy":858,"tth":859,"Ġwi":860,"Ġca":861,"Ġce":862,".'":863,"bf":864,"Ġdw":865,"ere":866,"Ġeea":867,"eio":868,"tte":869,"ero":870,"vc":871,"Ġsp":872,"Ġml":873,"Ġfi":874,"Ġeeo":875,"etu":876,"ooi":877,"ots":878,"ntr":879,"eso":880,"Ġwo":881,"Ġhp":882,"eil":883,"tts":884,"eno":885,"ead":886,"oth":887,"Ġgn":888,"Ġdy":889,"str":890,"eey":891,"gf":892,"mf":893,"ena":894,"eau":895,"etm":896,"Ġwh":897,"eha":898,"Ġkt":899,"Ġoee":900,"Ġwa":901,"oai":902,"Ġhb":903,"oir":904,"Ġfs":905,"Ġov":906,"tti":907,"Ġdc":908,"tta":909,"ooe":910,"ooo":911,"iti":912,"Ġbr":913,"mg":914,"ehs":915,"Ġok":916,"ooh":917,"ote":918,"oto":919,"elr":920,"Ġtv":921,"ata":922,"eec":923,"gg":924,"oan":925,"ky":926,"Ġmu":927,"erl":928,"Ġcd":929,"Ġfe":930,"oar":931,"td":932,"Ġeeh":933,"ato":934,"fg":935,"Ġwl":936,"htn":937,"eew":938,"Ġyd":939,"Ġyl":940,"cf":941,"oti":942,"itn":943,"aar":944,"htr":945,"Ġuy":946,"Ġeei":947,"Ġwd":948,"tu":949,"Ġcl":950,"oos":951,"hv":952,"iv":953,"Ġyu":954,"rtr":955,"aeo":956,"ite":957,"stn":958,"ik":959,"yb":960,"Ġfo":961,"itr":962,"hth":963,"cg":964,"Ġco":965,"Ġaee":966,"erd":967,"oae":968,"ois":969,"eal":970,"esd":971,"enl":972,"ath":973,"ati":974,"ntn":975,"rtn":976,"ttl":977,"Ġbn":978,"Ġz":979,"eid":980,"esu":981,"eom":982,"ehl":983,"Ġfa":984,"oin":985,"etc":986,"eam":987,"Ġgr":988,"ota":989,"Ġge":990,"eyt":991,"sv":992,"ub":993,"wg":994,"yg":995,"oas":996,"oia":997,"Ġav":998,"esl":999,"nte":1000,"ttu":1001,"ooa":1002,"kw":1003,"Ġeen":1004,"nti":1005,"ste":1006,"sth":1007,"oah":1008,"ita":1009,"osh":1010,"Ġdf":1011,"ehd":1012,"sk":1013,"ool":1014,"atl":1015,"Ġgo":1016,"Ġpr":1017,"Ġuc":1018,"rta":1019,"ose":1020,"Ġeaa":1021,"Ġtet":1022,"eim":1023,"eln":1024,"yp":1025,"Ġmm":1026,"tto":1027,"otd":1028,"Ġgi":1029,"oie":1030,"orr":1031,"bg":1032,"els":1033,"bp":1034,"vw":1035,"Ġhee":1036,"eiu":1037,"Ġ.,":1038,"Ġgs":1039,"rts":1040,"osr":1041,"vf":1042,"end":1043,"sti":1044,"Ġtk":1045,"its":1046,"onh":1047,"Ġeoh":1048,"Ġiee":1049,"mp":1050,"Ġuf":1051,"Ġfl":1052,"ehu":1053,"nts":1054,"Ġbe":1055,"aan":1056,"edr":1057,"oea":1058,"Ġmc":1059,"otu":1060,"Ġga":1061,"sta":1062,"oii":1063,"osi":1064,"onn":1065,"pg":1066,"Ġsee":1067,"Ġfd":1068,"otl":1069,"Ġuw":1070,"oih":1071,"osn":1072,"anr":1073,"Ġeer":1074,"Ġgd":1075,"Ġteo":1076,"Ġrv":1077,"ttd":1078,"Ġ,,":1079,"elh":1080,"nth":1081,"Ġbi":1082,"hte":1083,"ohs":1084,"kc":1085,"hts":1086,"ohr":1087,"Ġeor":1088,"Ġeai":1089,"Ġlb":1090,"esm":1091,"Ġgh":1092,"ito":1093,"rte":1094,"edh":1095,";,":1096,"Ġhv":1097,"atd":1098,"oal":1099,"Ġbs":1100,"rti":1101,"Ġnee":1102,"Ġ..":1103,"ith":1104,"oss":1105,"asr":1106,"up":1107,"oaa":1108,"oni":1109,"onr":1110,"kf":1111,"oen":1112,"esy":1113,"ele":1114,"ohn":1115,"air":1116,"eru":1117,"eur":1118,"ect":1119,"Ġdg":1120,"aaa":1121,"cb":1122,"Ġeoo":1123,"Ġeot":1124,"Ġcu":1125,"ela":1126,"ntd":1127,"wp":1128,"eef":1129,"ehm":1130,";.":1131,"Ġnv":1132,"atu":1133,"nta":1134,"Ġph":1135,"Ġpi":1136,"oha":1137,"ohh":1138,"arr":1139,"tm":1140,"Ġak":1141,"eay":1142,"sto":1143,"Ġbd":1144,"aao":1145,"ohi":1146,"aoe":1147,"Ġsv":1148,"itl":1149,"elo":1150,"ons":1151,"ahe":1152,"Ġree":1153,"Ġwm":1154,"erm":1155,"ono":1156,"Ġoet":1157,"eow":1158,"Ġmf":1159,"hti":1160,"rth":1161,"oro":1162,"Ġees":1163,"Ġaet":1164,"ntl":1165,"aai":1166,"eli":1167,"Ġbh":1168,"hto":1169,"Ġps":1170,"eft":1171,"vg":1172,"Ġert":1173,"Ġlp":1174,"stl":1175,"ors":1176,"ain":1177,"oew":1178,"ewt":1179,"fp":1180,"ety":1181,"Ġpe":1182,"ane":1183,"ann":1184,"Ġwu":1185,"itd":1186,"edo":1187,"aie":1188,"Ġeat":1189,"Ġym":1190,"oao":1191,"sts":1192,"eds":1193,"inr":1194,"oey":1195,"kg":1196,"Ġeas":1197,"Ġeah":1198,"Ġpn":1199,"orh":1200,"edn":1201,"ohe":1202,".;":1203,"Ġoea":1204,"Ġfu":1205,"std":1206,"hta":1207,"ltn":1208,"aec":1209,"Ġeon":1210,"Ġlg":1211,"enm":1212,"oso":1213,"ori":1214,"aih":1215,"etw":1216,"Ġmy":1217,"osa":1218,"iir":1219,"Ġyc":1220,"orn":1221,"are":1222,",;":1223,"fb":1224,"Ġneo":1225,"Ġdp":1226,"nto":1227,"aas":1228,"Ġpa":1229,"eda":1230,"ana":1231,"arn":1232,"ltr":1233,"ssn":1234,"dp":1235,"gb":1236,"Ġiv":1237,"aae":1238,"hk":1239,"Ġsea":1240,"Ġdb":1241,"eoc":1242,"Ġyy":1243,"edi":1244,"Ġtea":1245,"Ġrk":1246,"Ġhk":1247,"erc":1248,"ore":1249,"anh":1250,"aod":1251,"aey":1252,"lee":1253,"mb":1254,"rp":1255,"wb":1256,"Ġcc":1257,"Ġcy":1258,"aia":1259,"asn":1260,"ine":1261,"Ġeoi":1262,"Ġaeo":1263,"aii":1264,"rb":1265,"Ġeoa":1266,"Ġooo":1267,"Ġnk":1268,"Ġyw":1269,"osl":1270,"ass":1271,"euh":1272,"ahn":1273,"Ġear":1274,"Ġesn":1275,"Ġik":1276,"eoy":1277,"eaf":1278,"atm":1279,"hnn":1280,"tw":1281,"Ġeht":1282,"Ġmw":1283,"eac":1284,"eiy":1285,"Ġcw":1286,"Ġgu":1287,"eld":1288,"Ġcm":1289,"itu":1290,"ord":1291,"emr":1292,"Ġeii":1293,"rto":1294,"ase":1295,"aew":1296,"Ġttt":1297,"etf":1298,"eaw":1299,"stu":1300,"aah":1301,"isi":1302,"Ġten":1303,"ohl":1304,"ais":1305,"ahr":1306,"bb":1307,"Ġoeo":1308,"eic":1309,"Ġgl":1310,"Ġbo":1311,"hnr":1312,"hrr":1313,"Ġean":1314,"esc":1315,"eus":1316,"ari":1317,"ahi":1318,"iin":1319,"aeg":1320,"Ġerr":1321,"Ġoei":1322,"Ġub":1323,"ood":1324,"oau":1325,"Ġba":1326,"Ġpo":1327,"ona":1328,"aol":1329,"aef":1330,"Ġent":1331,"Ġtes":1332,"Ġsk":1333,"rtd":1334,"oho":1335,"asi":1336,"dtn":1337,"pb":1338,"Ġtot":1339,"enu":1340,"htl":1341,"hrh":1342,"oef":1343,"egt":1344,"Ġeel":1345,"Ġter":1346,"ntu":1347,"aal":1348,"aha":1349,"aho":1350,"iie":1351,"lts":1352,"hni":1353,"irr":1354,"Ġatt":1355,"eeg":1356,"oou":1357,"Ġfm":1358,"htd":1359,"rtl":1360,"oil":1361,"ahh":1362,"lte":1363,"oec":1364,"Ġeos":1365,"Ġeol":1366,"Ġenn":1367,"Ġoen":1368,"Ġheo":1369,"anl":1370,"ahs":1371,"sss":1372,"ihe":1373,"tf":1374,"Ġaeh":1375,"ttm":1376,"htu":1377,"ora":1378,"ede":1379,"irn":1380,"cp":1381,"eof":1382,"eiw":1383,"Ġ,.":1384,"Ġfy":1385,"oio":1386,"aio":1387,"ems":1388,"Ġtoo":1389,"ell":1390,"one":1391,"eue":1392,"ars":1393,"gp":1394,"iet":1395,"Ġteh":1396,"aid":1397,"ano":1398,"snr":1399,"aes":1400,"Ġreo":1401,"Ġug":1402,"oid":1403,"rnr":1404,"aet":1405,"Ġieo":1406,"Ġnet":1407,"ttw":1408,"Ġww":1409,"oom":1410,"Ġbl":1411,"Ġbu":1412,"rtu":1413,"ara":1414,"arh":1415,"ssi":1416,"srn":1417,"xt":1418,"Ġeit":1419,"Ġwc":1420,"ery":1421,"ehw":1422,"hrn":1423,"ihs":1424,"oes":1425,"vb":1426,"enw":1427,"ash":1428,"ani":1429,"iii":1430,"aom":1431,"Ġvn":1432,"oeg":1433,"pp":1434,"Ġ9":1435,"Ġoot":1436,"osu":1437,"eui":1438,"snn":1439,"ebt":1440,"oit":1441,"Ġein":1442,"Ġehh":1443,"Ġtoa":1444,"Ġiet":1445,"stm":1446,"edd":1447,"ans":1448,"aou":1449,"olr":1450,"aln":1451,"mee":1452,"Ġtei":1453,"asa":1454,"sns":1455,"oli":1456,"oln":1457,"Ġenr":1458,"Ġoer":1459,"Ġaea":1460,"Ġset":1461,"ehc":1462,"Ġpl":1463,"onl":1464,"orl":1465,"eua":1466,"ahl":1467,"emi":1468,"hnh":1469,"jt":1470,"Ġup":1471,"Ġyf":1472,"oty":1473,"ssa":1474,"srr":1475,"Ġest":1476,"Ġeih":1477,"Ġotr":1478,"oad":1479,"iih":1480,"lta":1481,"ssh":1482,"sso":1483,"ssr":1484,"hre":1485,"isu":1486,"Ġtat":1487,"Ġgm":1488,"ail":1489,"emn":1490,"ini":1491,"Ġvr":1492,"sia":1493,"Ġeir":1494,"Ġhet":1495,"Ġmg":1496,"erf":1497,"uts":1498,"oeh":1499,"Ġesh":1500,"Ġtir":1501,"Ġaei":1502,"Ġaes":1503,"atw":1504,"elu":1505,"aad":1506,"eun":1507,"iio":1508,"ltd":1509,"odn":1510,"?.":1511,"tg":1512,"vp":1513,"Ġotn":1514,"aty":1515,"htm":1516,"osd":1517,"ond":1518,"aiu":1519,"aro":1520,"iia":1521,"inn":1522,"dtr":1523,"ole":1524,"Ġaot":1525,"Ġrea":1526,"Ġmb":1527,"esw":1528,"erw":1529,"Ġfw":1530,"aam":1531,"aoc":1532,"ihh":1533,"ish":1534,"tc":1535,"Ġttr":1536,"Ġret":1537,"eeb":1538,"Ġwy":1539,"sse":1540,"iso":1541,"Ġesr":1542,"oow":1543,"oam":1544,"itm":1545,"edl":1546,"lti":1547,"Ġkr":1548,"kb":1549,"eep":1550,"otw":1551,"Ġpd":1552,"aso":1553,"ods":1554,"aei":1555,"eny":1556,"oay":1557,"ity":1558,"ntm":1559,"hns":1560,"Ġvs":1561,"dte":1562,"dth":1563,"Ġkh":1564,"Ġoat":1565,"Ġsei":1566,"Ġlee":1567,"Ġmp":1568,"enc":1569,"Ġwf":1570,"Ġpu":1571,"euu":1572,"lth":1573,"ema":1574,"snh":1575,"aoy":1576,"dta":1577,"hhe":1578,"utn":1579,"Ġtel":1580,"Ġtar":1581,"Ġnea":1582,"oiu":1583,"hna":1584,"sni":1585,"hrs":1586,"Ġka":1587,"kp":1588,"Ġ1":1589,"Ġeis":1590,"Ġern":1591,"eob":1592,"ehy":1593,"otm":1594,"stc":1595,"alr":1596,"lk":1597,"oei":1598,"ty":1599,"tty":1600,"ehg":1601,"Ġbm":1602,"onu":1603,"and":1604,"eme":1605,"iri":1606,"srh":1607,"dts":1608,"ols":1609,"she":1610,"Ġess":1611,"Ġttn":1612,"Ġiei":1613,"ohd":1614,"ohu":1615,"anu":1616,"srs":1617,"oep":1618,"aea":1619,"Ġhtt":1620,"ooc":1621,"Ġff":1622,"rtm":1623,"hne":1624,"hri":1625,"sro":1626,"shs":1627,"ewn":1628,"mti":1629,"Ġeni":1630,"Ġott":1631,"Ġont":1632,"Ġatn":1633,"Ġhei":1634,"etg":1635,"atf":1636,"Ġby":1637,"asu":1638,"ins":1639,"sne":1640,"Ġvi":1641,"sri":1642,"ali":1643,"rrr":1644,"utr":1645,"ode":1646,"our":1647,"Ġtai":1648,"Ġseo":1649,"Ġgc":1650,"oac":1651,"elm":1652,"Ġpm":1653,"eul":1654,"ahd":1655,"hno":1656,"dti":1657,"olh":1658,"Ġki":1659,"nni":1660,"eyi":1661,"Ġetr":1662,"oun":1663,"aot":1664,"gee":1665,"Ġtst":1666,"Ġoeh":1667,"Ġhes":1668,"Ġher":1669,"ely":1670,"Ġkn":1671,"nne":1672,"Ġehs":1673,"Ġeso":1674,"Ġsen":1675,"ard":1676,"Ġve":1677,"ise":1678,"eyr":1679,"sio":1680,"Ġeed":1681,"Ġeio":1682,"Ġtit":1683,"Ġaoo":1684,"Ġaon":1685,"Ġsot":1686,"Ġyb":1687,"esf":1688,"asd":1689,"etp":1690,"eab":1691,"ttc":1692,"Ġcf":1693,"nty":1694,"htw":1695,"arl":1696,"hnl":1697,"inl":1698,"sna":1699,"aow":1700,"hra":1701,"oeb":1702,"rre":1703,"rns":1704,"Ġetn":1705,"hil":1706,"Ġoed":1707,"ehf":1708,"ooy":1709,"oim":1710,"osw":1711,"orm":1712,"ory":1713,"irh":1714,"sre":1715,"dto":1716,"rrh":1717,"rrn":1718,"odr":1719,"Ġelt":1720,"Ġoes":1721,"Ġaen":1722,"Ġrer":1723,"atc":1724,"Ġgy":1725,"aau":1726,"osm":1727,"ahu":1728,"iro":1729,"hho":1730,"shi":1731,"Ġets":1732,"''":1733,"Ġoel":1734,"Ġseh":1735,"Ġrtr":1736,"eop":1737,"irs":1738,"sra":1739,"ola":1740,"Ġke":1741,"nnh":1742,"alo":1743,"ecr":1744,"Ġesi":1745,"Ġead":1746,"Ġtor":1747,"Ġooi":1748,"Ġiot":1749,"Ġstt":1750,"Ġstr":1751,"eog":1752,"eif":1753,"Ġfc":1754,"ntc":1755,"sty":1756,"hty":1757,"rtw":1758,"eud":1759,"iiu":1760,"Ġva":1761,"Ġkl":1762,"iha":1763,"uta":1764,"ute":1765,"mtn":1766,"efe":1767,"lv":1768,"Ġhen":1769,"eag":1770,"Ġyg":1771,"rty":1772,"Ġpy":1773,"edu":1774,"iis":1775,"lto":1776,"ire":1777,"nnr":1778,"nns":1779,"hhs":1780,"?,":1781,"Ġesl":1782,"Ġton":1783,"Ġost":1784,"Ġoaa":1785,"Ġsat":1786,"Ġntr":1787,"Ġhoa":1788,"rtc":1789,"oru":1790,"iil":1791,"emo":1792,"hnu":1793,"Ġks":1794,"isl":1795,"eyn":1796,"sid":1797,"hso":1798,"aur":1799,"wee":1800,"Ġehr":1801,"Ġenh":1802,"Ġooa":1803,"Ġoss":1804,"Ġitt":1805,"Ġren":1806,"Ġlv":1807,"Ġwg":1808,"Ġcp":1809,"Ġfg":1810,"elc":1811,"oic":1812,"asl":1813,"ino":1814,"olo":1815,"ihi":1816,"isd":1817,"aep":1818,"hhh":1819,"sie":1820,"ous":1821,"Ġtos":1822,"Ġiea":1823,"Ġies":1824,"rtf":1825,"ohm":1826,"asm":1827,"euo":1828,"ltl":1829,"irl":1830,"sno":1831,"ale":1832,"rni":1833,"fk":1834,"Ġtan":1835,"Ġoit":1836,"Ġntt":1837,"aeb":1838,"nnn":1839,"sha":1840,"hio":1841,"hsd":1842,"Ġehn":1843,"Ġeey":1844,"Ġtaa":1845,"Ġtnr":1846,"Ġien":1847,"Ġner":1848,"Ġgf":1849,"osc":1850,"ony":1851,"snu":1852,"nno":1853,"sho":1854,"lni":1855,"gv":1856,"Ġooh":1857,"Ġses":1858,"snd":1859,"hrl":1860,"Ġko":1861,"sow":1862,"ept":1863,"aen":1864,"dv":1865,"hea":1866,"seo":1867,"Ġeec":1868,"Ġtht":1869,"otc":1870,"oaw":1871,"osy":1872,"Ġpw":1873,"aim":1874,"iid":1875,"ltu":1876,"inh":1877,"srl":1878,"iho":1879,"hhi":1880,"sli":1881,"nhe":1882,"ioy":1883,"att":1884,"heo":1885,"ieo":1886,"Ġeem":1887,"Ġedt":1888,"Ġtoi":1889,"Ġait":1890,"Ġatr":1891,"Ġsor":1892,"Ġrtt":1893,"Ġheh":1894,"Ġhtn":1895,"Ġlk":1896,"elw":1897,"ohw":1898,"ahm":1899,"ssl":1900,"ira":1901,"alh":1902,"shd":1903,"lno":1904,"ham":1905,"bee":1906,"nee":1907,"Ġeef":1908,"Ġeil":1909,"Ġaoi":1910,"Ġnen":1911,"Ġreh":1912,"Ġroo":1913,"onm":1914,"anm":1915,"ina":1916,"als":1917,"odh":1918,"!,":1919,",?":1920,"ien":1921,"Ġ)":1922,"Ġtrt":1923,"Ġoor":1924,"Ġsoo":1925,"Ġcb":1926,"otf":1927,"emh":1928,"Ġvo":1929,"ihd":1930,"rrl":1931,"rrs":1932,"eye":1933,"aat":1934,"Ġeao":1935,"Ġeod":1936,"Ġemt":1937,"Ġeou":1938,"Ġtnt":1939,"Ġaer":1940,"Ġaoa":1941,"Ġaar":1942,"eeee":1943,"eig":1944,"otb":1945,"stw":1946,"snl":1947,"hro":1948,"isa":1949,"hhl":1950,"nrh":1951,"lrh":1952,"itt":1953,"vv":1954,"Ġeeu":1955,"Ġaaa":1956,"Ġioo":1957,"Ġitn":1958,"Ġsnt":1959,"erg":1960,"Ġbw":1961,"eyh":1962,"hie":1963,"hsu":1964,"wte":1965,"bk":1966,"ses":1967,"Ġahr":1968,"Ġieh":1969,"Ġioa":1970,"Ġser":1971,"Ġrei":1972,"itc":1973,"rtg":1974,"Ġpf":1975,"onc":1976,"eml":1977,"Ġvl":1978,"dtl":1979,"lro":1980,"omn":1981,"Ġeae":1982,"Ġtoh":1983,"Ġtin":1984,"Ġtrr":1985,"Ġoai":1986,"Ġstn":1987,"Ġnoo":1988,"Ġhoo":1989,"esb":1990,"itw":1991,"aac":1992,"aay":1993,"osf":1994,"arm":1995,"uti":1996,"aus":1997,"lns":1998,"yts":1999,"sea":2000,"Ġeew":2001,"Ġtii":2002,"Ġtss":2003,"Ġort":2004,"Ġoir":2005,"Ġaat":2006,"Ġaan":2007,"Ġnnt":2008,"Ġroa":2009,"Ġrtn":2010,"Ġuee":2011,"oof":2012,"aag":2013,"aaw":2014,"oiy":2015,"aru":2016,"ihl":2017,"ala":2018,"uth":2019,"nie":2020,"dee":2021,"Ġehi":2022,"Ġesa":2023,"Ġtsn":2024,"Ġtnn":2025,"Ġnot":2026,"Ġres":2027,"enf":2028,"eng":2029,"edm":2030,"hnd":2031,"Ġku":2032,"mtr":2033,"mts":2034,"nv":2035,"xr":2036,"Ġeia":2037,"Ġeid":2038,"Ġtsr":2039,"Ġoan":2040,"Ġnes":2041,"ttf":2042,"atg":2043,"edc":2044,"dtu":2045,"odi":2046,"Ġeth":2047,"adr":2048,"hsa":2049,"Ġehl":2050,"Ġeho":2051,"Ġntn":2052,"Ġhot":2053,"Ġdee":2054,"eap":2055,"emd":2056,"aof":2057,"oll":2058,"nna":2059,"eco":2060,"lne":2061,"lri":2062,"nse":2063,"tb":2064,"Ġeal":2065,"Ġeau":2066,"Ġoin":2067,"Ġant":2068,"Ġaai":2069,"Ġnat":2070,"Ġhaa":2071,"ntf":2072,"asy":2073,"arw":2074,"ltm":2075,"lty":2076,"ssu":2077,"hny":2078,"Ġvd":2079,"dtd":2080,"Ġkd":2081,"ihu":2082,"hhd":2083,"rnl":2084,"ews":2085,"Ġeti":2086,"nre":2087,"efn":2088,"cv":2089,"oel":2090,"pee":2091,"yk":2092,"Ġthi":2093,"Ġoeu":2094,"Ġaoh":2095,"Ġain":2096,"Ġier":2097,"Ġitr":2098,"Ġhea":2099,"Ġhit":2100,"Ġhai":2101,"Ġdv":2102,"Ġdeo":2103,"oaf":2104,"stf":2105,"htf":2106,"hnm":2107,"Ġvh":2108,"dtm":2109,"oda":2110,"efs":2111,"hoo":2112,"Ġeom":2113,"Ġesd":2114,"Ġoht":2115,"Ġoas":2116,"Ġoar":2117,"Ġhat":2118,"Ġleo":2119,"Ġdea":2120,"Ġmk":2121,"ohy":2122,"ahw":2123,"ahy":2124,"hrd":2125,"hru":2126,"rra":2127,"ewe":2128,"mta":2129,"mtd":2130,"mte":2131,"nra":2132,"hse":2133,"lre":2134,"-,":2135,"bv":2136,"ier":2137,"uee":2138,"Ġenl":2139,"Ġeam":2140,"Ġted":2141,"Ġoon":2142,"Ġnoa":2143,"Ġrot":2144,"Ġlet":2145,"etb":2146,"Ġbc":2147,"eum":2148,"iiy":2149,"snm":2150,"all":2151,"rnh":2152,"siy":2153,"ecn":2154,"nrs":2155,"aun":2156,"'re":2157,"aoa":2158,"cee":2159,"oer":2160,"oed":2161,"Ġ(":2162,"Ġonn":2163,"Ġart":2164,"Ġiaa":2165,"Ġsaa":2166,"Ġros":2167,"Ġhtr":2168,"Ġlea":2169,"Ġuv":2170,"ehb":2171,"asf":2172,"eyl":2173,"rna":2174,"sil":2175,"siu":2176,"oui":2177,"cts":2178,"qt":2179,"uv":2180,"Ġtoe":2181,"Ġaor":2182,"Ġiai":2183,"Ġhrr":2184,"Ġyp":2185,"ttg":2186,"oog":2187,"Ġgw":2188,"itf":2189,"htc":2190,"Ġpc":2191,"srd":2192,"ihm":2193,"eyo":2194,"adn":2195,"efa":2196,"iam":2197,"sdn":2198,"hdn":2199,"hoy":2200,"pv":2201,"sei":2202,"Ġeln":2203,"Ġeie":2204,"Ġolt":2205,"edw":2206,"anf":2207,"ssd":2208,"hha":2209,"rri":2210,"uto":2211,"Ġeta":2212,"nro":2213,"nru":2214,"aue":2215,"auo":2216,"nil":2217,"dre":2218,"Ġthn":2219,"Ġtnl":2220,"Ġoos":2221,"Ġair":2222,"Ġiit":2223,"Ġioh":2224,"Ġmee":2225,"esp":2226,"Ġwb":2227,"otg":2228,"ntw":2229,"onw":2230,"olm":2231,"alu":2232,"rro":2233,"utd":2234,"ewr":2235,"ece":2236,"oue":2237,"adl":2238,"hid":2239,"lrs":2240,"omr":2241,"iay":2242,"hei":2243,"Ġedr":2244,"Ġtlt":2245,"Ġooe":2246,"Ġorn":2247,"Ġoni":2248,"Ġioi":2249,"Ġsit":2250,"Ġsel":2251,"Ġson":2252,"Ġsan":2253,"Ġhss":2254,"Ġden":2255,"Ġmet":2256,"ehp":2257,"Ġfb":2258,"orw":2259,"aiy":2260,"ind":2261,"aog":2262,"hrm":2263,"hrw":2264,"isy":2265,"ade":2266,"adi":2267,"nri":2268,"sac":2269,"egr":2270,"ils":2271,"sds":2272,"hlh":2273,".?":2274,"aos":2275,"vee":2276,"xe":2277,"Ġesu":2278,"Ġehe":2279,"Ġtas":2280,"Ġtni":2281,"Ġtha":2282,"Ġoae":2283,"Ġosh":2284,"Ġael":2285,"Ġast":2286,"Ġiar":2287,"Ġirn":2288,"Ġuk":2289,"eib":2290,"Ġcg":2291,"edy":2292,"emm":2293,"Ġkm":2294,"utl":2295,"odo":2296,"ada":2297,"adh":2298,"lrl":2299,"sam":2300,"ile":2301,"Ġere":2302,"yee":2303,"Ġtew":2304,"Ġtna":2305,"Ġohn":2306,"Ġist":2307,"Ġnit":2308,"Ġnor":2309,"Ġnoh":2310,"Ġwp":2311,"ntg":2312,"Ġbg":2313,"aiw":2314,"iim":2315,"ssm":2316,"hia":2317,"hsl":2318,"aui":2319,"sla":2320,"egn":2321,"wta":2322,"owr":2323,"';":2324,"het":2325,"Ġeoe":2326,"Ġeha":2327,"Ġend":2328,"Ġoah":2329,"Ġoao":2330,"Ġohr":2331,"Ġosr":2332,"Ġonh":2333,"Ġint":2334,"Ġsoa":2335,"Ġrst":2336,"erb":2337,"orc":2338,"iru":2339,"oly":2340,"shl":2341,"oms":2342,"sls":2343,"say":2344,"dra":2345,"yte":2346,"yti":2347,"iow":2348,"fee":2349,"jr":2350,"Ġehu":2351,"Ġaht":2352,"Ġahi":2353,"Ġsht":2354,"Ġnei":2355,"Ġnht":2356,"Ġnoi":2357,"Ġraa":2358,"ĠĠĠĠĠ":2359,"Ġfp":2360,"elf":2361,"euc":2362,"ewh":2363,"ads":2364,"nid":2365,"nio":2366,"slo":2367,"soc":2368,"wti":2369,"idn":2370,"!.":2371,",-":2372,"aer":2373,"ck":2374,"feo":2375,"gk":2376,"her":2377,"iea":2378,"xn":2379,"Ġeno":2380,"Ġenu":2381,"Ġohh":2382,"Ġaas":2383,"Ġaao":2384,"Ġiat":2385,"Ġhsh":2386,"ttb":2387,"Ġgb":2388,"ang":2389,"euy":2390,"emy":2391,"Ġvu":2392,"dtw":2393,"old":2394,"utu":2395,"eya":2396,"ado":2397,"efo":2398,"ome":2399,"wto":2400,"xi":2401,"Ġelr":2402,"Ġeoc":2403,"Ġtra":2404,"Ġoew":2405,"Ġios":2406,"Ġsos":2407,"Ġsed":2408,"Ġrit":2409,"Ġrah":2410,"Ġrir":2411,"esg":2412,"atp":2413,"oiw":2414,"asw":2415,"inm":2416,"inu":2417,"hry":2418,"srm":2419,"eyd":2420,"ech":2421,"mth":2422,"-.":2423,".!":2424,"fv":2425,"rv":2426,"Ġene":2427,"Ġosn":2428,"Ġaos":2429,"Ġsst":2430,"Ġnel":2431,"Ġhor":2432,"Ġdk":2433,"Ġyv":2434,"enb":2435,"atb":2436,"itg":2437,"stb":2438,"Ġbp":2439,"Ġpg":2440,"edf":2441,"iic":2442,"ird":2443,"irm":2444,"hhu":2445,"ecs":2446,"auh":2447,"lna":2448,"tre":2449,"sld":2450,"ioc":2451,"hdh":2452,"oyn":2453,"qn":2454,"ree":2455,"Ġens":2456,"Ġtih":2457,"Ġtns":2458,"Ġalt":2459,"Ġanl":2460,"Ġisr":2461,"Ġsai":2462,"Ġneh":2463,"Ġrat":2464,"Ġlei":2465,"Ġles":2466,"Ġdet":2467,"Ġdei":2468,"Ġwee":2469,"oap":2470,"Ġbf":2471,"anw":2472,"euw":2473,"aob":2474,"olu":2475,"lnu":2476,"sle":2477,"slh":2478,"sdh":2479,"Ġtte":2480,"ies":2481,"leo":2482,"tp":2483,"Ġehd":2484,"Ġeow":2485,"Ġtnd":2486,"Ġtno":2487,"Ġohs":2488,"Ġarr":2489,"Ġash":2490,"Ġior":2491,"Ġian":2492,"Ġnrt":2493,"Ġnah":2494,"Ġrel":2495,"Ġltn":2496,"erp":2497,"Ġ,'":2498,"otp":2499,"ohc":2500,"ary":2501,"emu":2502,"ism":2503,"isw":2504,"aev":2505,"hhf":2506,"rno":2507,"sim":2508,"ewa":2509,"ewo":2510,"ecl":2511,"Ġete":2512,"ouh":2513,"omi":2514,"dro":2515,"ilh":2516,"sde":2517,"wth":2518,"wts":2519,"ebr":2520,"Ġers":2521,"Ġate":2522,"Ġeac":2523,"Ġtah":2524,"Ġtrl":2525,"Ġoii":2526,"Ġasn":2527,"Ġinl":2528,"Ġnan":2529,"Ġrnt":2530,"Ġrht":2531,"Ġdoa":2532,"eoee":2533,"Ġmv":2534,"Ġgp":2535,"stg":2536,"ltw":2537,"nnl":2538,"nnu":2539,"odm":2540,"rne":2541,"rnu":2542,"eca":2543,"mtl":2544,"Ġeto":2545,"Ġetu":2546,"oua":2547,"oud":2548,"add":2549,"lnh":2550,"tnh":2551,"ega":2552,"sdi":2553,"hun":2554,"js":2555,"Ġeep":2556,"Ġeiu":2557,"Ġels":2558,"Ġtdt":2559,"Ġtut":2560,"Ġtso":2561,"Ġoih":2562,"Ġohi":2563,"Ġaed":2564,"Ġaah":2565,"Ġann":2566,"Ġied":2567,"Ġiih":2568,"Ġinh":2569,"Ġsas":2570,"Ġroi":2571,"Ġrai":2572,"Ġhar":2573,"Ġler":2574,"Ġck":2575,"Ġcee":2576,"oob":2577,"oop":2578,"elg":2579,"orf":2580,"ohf":2581,"sru":2582,"alw":2583,"mto":2584,"efi":2585,"ili":2586,"iof":2587,"ido":2588,"ctd":2589,"hof":2590,"uri":2591,"Ġots":2592,",!":2593,".-":2594,"aeh":2595,"dk":2596,"nk":2597,"set":2598,"stt":2599,"Ġeut":2600,"Ġena":2601,"Ġtao":2602,"Ġthr":2603,"Ġtae":2604,"Ġtia":2605,"Ġodt":2606,"Ġosi":2607,"Ġinr":2608,"Ġsar":2609,"Ġssn":2610,"Ġnst":2611,"Ġned":2612,"Ġnai":2613,"Ġnrr":2614,"Ġred":2615,"Ġhan":2616,"Ġueo":2617,"Ġvm":2618,"hhy":2619,"odu":2620,"ecu":2621,"aul":2622,"tni":2623,"saw":2624,"dri":2625,"drs":2626,"Ġeri":2627,"ocr":2628,"kv":2629,"weo":2630,"Ġewt":2631,"Ġtsh":2632,"Ġths":2633,"Ġtsa":2634,"Ġoem":2635,"Ġoam":2636,"Ġisn":2637,"Ġirr":2638,"Ġsah":2639,"Ġsih":2640,"Ġshi":2641,"Ġnem":2642,"Ġron":2643,"Ġhel":2644,"aaf":2645,"htg":2646,"ohp":2647,"ssw":2648,"hnc":2649,"hhm":2650,"eys":2651,"rnd":2652,"eci":2653,"trh":2654,"iaw":2655,"nho":2656,"haw":2657,"cte":2658,"ebh":2659,"how":2660,"nlh":2661,"nls":2662,"amr":2663,"oye":2664,"iuh":2665,"ays":2666,"Ġeof":2667,"Ġtol":2668,"Ġtri":2669,"Ġool":2670,"Ġarn":2671,"Ġard":2672,"Ġiah":2673,"Ġiol":2674,"Ġhos":2675,"Ġltr":2676,"etk":2677,"etv":2678,"Ġ.'":2679,"Ġgg":2680,"ntb":2681,"snw":2682,"dty":2683,"ald":2684,"rru":2685,"Ġ',":2686,"Ġetl":2687,"adu":2688,"lnl":2689,"omo":2690,"egh":2691,"ill":2692,"sof":2693,"ytl":2694,"ida":2695,"ebi":2696,"hla":2697,"ure":2698,"fte":2699,"ndi":2700,"pea":2701,"tk":2702,"tee":2703,"Ġtnh":2704,"Ġois":2705,"Ġono":2706,"Ġors":2707,"Ġnsi":2708,"Ġrrt":2709,"Ġror":2710,"Ġrsr":2711,"Ġhht":2712,"Ġhoh":2713,"Ġhah":2714,"Ġhii":2715,"Ġhir":2716,"Ġdtt":2717,"Ġdot":2718,"enp":2719,"oag":2720,"onp":2721,"aif":2722,"euf":2723,"ssf":2724,"emc":2725,"ewd":2726,"oul":2727,"ouo":2728,"efh":2729,"omh":2730,"drh":2731,"yth":2732,"idi":2733,"cth":2734,"ebe":2735,"hli":2736,"fth":2737,"Ġoth":2738,"nay":2739,"ji":2740,"let":2741,"rk":2742,"sot":2743,"Ġtis":2744,"Ġtsi":2745,"Ġtho":2746,"Ġaii":2747,"Ġahn":2748,"Ġaol":2749,"Ġanh":2750,"Ġans":2751,"Ġano":2752,"Ġsni":2753,"Ġnaa":2754,"Ġnar":2755,"Ġnin":2756,"Ġhhn":2757,"Ġdes":2758,"oif":2759,"org":2760,"orp":2761,"aic":2762,"asc":2763,"inw":2764,"Ġvc":2765,"Ġvy":2766,"oev":2767,"odd":2768,"eyu":2769,"nrl":2770,"lra":2771,"lru":2772,"trs":2773,"ilu":2774,"wtl":2775,"ide":2776,"urs":2777,"mrh":2778,"je":2779,"jn":2780,"xl":2781,"Ġesw":2782,"Ġele":2783,"Ġteu":2784,"Ġtrd":2785,"Ġiht":2786,"Ġiii":2787,"Ġshr":2788,"Ġsnn":2789,"Ġnii":2790,"Ġnnr":2791,"Ġhnt":2792,"Ġhst":2793,"eek":2794,"eev":2795,"Ġlot":2796,"Ġlit":2797,"ehk":2798,"Ġbb":2799,"Ġpp":2800,"onb":2801,"onf":2802,"edg":2803,"ltf":2804,"iny":2805,"irc":2806,"alc":2807,"ody":2808,"shu":2809,"lnd":2810,"ege":2811,"hay":2812,"idh":2813,"ids":2814,"epn":2815,"Ġtts":2816,"oyh":2817,"oyr":2818,"sun":2819,"ayn":2820,"gti":2821,"ieh":2822,"lei":2823,"Ġeaw":2824,"Ġthd":2825,"Ġorr":2826,"Ġosa":2827,"Ġonl":2828,"Ġaem":2829,"Ġaoe":2830,"Ġanr":2831,"Ġiel":2832,"Ġias":2833,"Ġinn":2834,"Ġish":2835,"Ġsrt":2836,"Ġsoi":2837,"Ġsii":2838,"Ġshh":2839,"Ġnsr":2840,"Ġnoe":2841,"Ġrar":2842,"Ġroe":2843,"Ġrnn":2844,"Ġwv":2845,"ltg":2846,"iry":2847,"ihw":2848,"efr":2849,"hsm":2850,"lrd":2851,"saf":2852,"ila":2853,"ebd":2854,"hll":2855,"Ġtto":2856,"fti":2857,"geo":2858,"uk":2859,"wk":2860,"xo":2861,"Ġeyt":2862,"Ġese":2863,"Ġesy":2864,"Ġthh":2865,"Ġtod":2866,"Ġtro":2867,"Ġaeu":2868,"Ġins":2869,"Ġshn":2870,"Ġnnn":2871,"Ġnrn":2872,"Ġras":2873,"Ġrhh":2874,"Ġhni":2875,"Ġlor":2876,"esee":2877,"aap":2878,"arf":2879,"ssy":2880,"isc":2881,"utc":2882,"Ġetd":2883,"oum":2884,"efl":2885,"hac":2886,"ctl":2887,"hle":2888,"ius":2889,"ayr":2890,"imn":2891,"run":2892,"aoi":2893,"aed":2894,"ioa":2895,"jh":2896,"kee":2897,"Ġtrh":2898,"Ġoad":2899,"Ġoia":2900,"Ġais":2901,"Ġaec":2902,"Ġani":2903,"Ġiin":2904,"Ġihi":2905,"Ġnas":2906,"Ġrol":2907,"Ġhon":2908,"Ġloi":2909,"Ġuet":2910,"eov":2911,"Ġmeo":2912,"Ġmtt":2913,"ehee":2914,"elp":2915,"stp":2916,"ahf":2917,"sny":2918,"aop":2919,"hrf":2920,"shc":2921,"ewi":2922,"ecm":2923,"efd":2924,"efu":2925,"hsy":2926,"auu":2927,"drl":2928,"Ġotl":2929,"gts":2930,"xh":2931,"xs":2932,"Ġ\"":2933,"Ġeoy":2934,"Ġedn":2935,"Ġteg":2936,"Ġoou":2937,"Ġoho":2938,"Ġona":2939,"Ġone":2940,"Ġore":2941,"Ġasr":2942,"Ġseu":2943,"Ġssr":2944,"Ġsrr":2945,"Ġssh":2946,"Ġssi":2947,"Ġnos":2948,"Ġneu":2949,"Ġnir":2950,"Ġnni":2951,"Ġrii":2952,"Ġhsi":2953,"Ġlen":2954,"etee":2955,"Ġyee":2956,"ttp":2957,"oab":2958,"Ġbee":2959,"ong":2960,"aig":2961,"Ġkc":2962,"aly":2963,"ecw":2964,"mty":2965,"adm":2966,"hiu":2967,"soy":2968,"yto":2969,"sdo":2970,"cti":2971,"urh":2972,"Ġtti":2973,"Ġero":2974,"ocn":2975,"hua":2976,"mro":2977,"get":2978,"peo":2979,"Ġeaf":2980,"Ġela":2981,"Ġtey":2982,"Ġoef":2983,"Ġose":2984,"Ġadt":2985,"Ġaia":2986,"Ġaho":2987,"Ġaie":2988,"Ġand":2989,"Ġarl":2990,"Ġsss":2991,"Ġnio":2992,"Ġrsn":2993,"Ġris":2994,"Ġhsn":2995,"Ġlaa":2996,"Ġdoo":2997,"Ġuea":2998,"Ġuei":2999,"rtp":3000,"asg":3001,"anc":3002,"ecd":3003,"nrd":3004,"tri":3005,"ctw":3006,"hls":3007,"epr":3008,"amh":3009,"Ġtth":3010,"nsy":3011,"owh":3012,"sus":3013,"rlh":3014,"bte":3015,"Ġste":3016,"ait":3017,"vk":3018,"Ġ2":3019,"Ġeiy":3020,"Ġtse":3021,"Ġtrs":3022,"Ġoey":3023,"Ġail":3024,"Ġihn":3025,"Ġiio":3026,"Ġsin":3027,"Ġsrd":3028,"Ġnon":3029,"Ġroh":3030,"Ġreu":3031,"Ġrrr":3032,"Ġhoi":3033,"Ġhsr":3034,"Ġhnl":3035,"Ġleh":3036,"Ġcv":3037,"ntp":3038,"orb":3039,"any":3040,"Ġvw":3041,"nnd":3042,"utm":3043,"Ġ'.":3044,"aua":3045,"niu":3046,"sdd":3047,"idu":3048,"nle":3049,"epi":3050,"ame":3051,"hus":3052,"mre":3053,"Ġats":3054,"Ġiti":3055,"pte":3056,"iwn":3057,"scn":3058,"bet":3059,"cet":3060,"xd":3061,"Ġeeb":3062,"Ġtrn":3063,"Ġtoy":3064,"Ġtru":3065,"Ġonr":3066,"Ġorh":3067,"Ġasa":3068,"Ġarh":3069,"Ġiir":3070,"Ġihd":3071,"Ġsoh":3072,"Ġsnr":3073,"Ġnsh":3074,"Ġrlt":3075,"Ġrao":3076,"Ġrrn":3077,"Ġrhi":3078,"Ġhrt":3079,"Ġhas":3080,"Ġloa":3081,"oip":3082,"hnf":3083,"utw":3084,"sif":3085,"Ġetw":3086,"aud":3087,"oma":3088,"omu":3089,"egu":3090,"sob":3091,"sog":3092,"nhd":3093,"hlo":3094,"ura":3095,"urd":3096,"Ġote":3097,"Ġoti":3098,"sev":3099,"sua":3100,"hue":3101,"nof":3102,"rls":3103,"awn":3104,"ace":3105,"ofn":3106,"pti":3107,"Ġnth":3108,"Ġrts":3109,"gea":3110,"ost":3111,"xa":3112,"Ġelh":3113,"Ġtal":3114,"Ġtne":3115,"Ġooy":3116,"Ġooc":3117,"Ġond":3118,"Ġasi":3119,"Ġaio":3120,"Ġana":3121,"Ġirt":3122,"Ġsao":3123,"Ġnhn":3124,"Ġltt":3125,"eiee":3126,"htb":3127,"oiee":3128,"edb":3129,"edp":3130,"snc":3131,"src":3132,"Ġky":3133,"ihg":3134,"ewl":3135,"ouy":3136,"lrm":3137,"tne":3138,"tns":3139,"sap":3140,"ilo":3141,"sdl":3142,"ebn":3143,"hld":3144,"Ġtta":3145,"nsu":3146,"aye":3147,"imh":3148,"sms":3149,"aon":3150,"wv":3151,"Ġtio":3152,"Ġthe":3153,"Ġtls":3154,"Ġood":3155,"Ġoec":3156,"Ġohd":3157,"Ġoru":3158,"Ġaal":3159,"Ġaso":3160,"Ġase":3161,"Ġiao":3162,"Ġnss":3163,"Ġnao":3164,"Ġnnh":3165,"Ġrnr":3166,"Ġhae":3167,"Ġhrn":3168,"Ġlnt":3169,"erk":3170,"atee":3171,"aab":3172,"rrd":3173,"shw":3174,"eyc":3175,"efm":3176,"hsc":3177,"tno":3178,"omm":3179,"iac":3180,"ild":3181,"nhl":3182,"wtu":3183,"amn":3184,"Ġttd":3185,"Ġera":3186,"Ġerd":3187,"Ġerh":3188,"iun":3189,"awr":3190,"Ġhte":3191,";'":3192,"iei":3193,"jo":3194,"xu":3195,"yv":3196,"yet":3197,"yea":3198,"Ġemr":3199,"Ġesm":3200,"Ġell":3201,"Ġeld":3202,"Ġtem":3203,"Ġtef":3204,"Ġtsw":3205,"Ġoau":3206,"Ġonu":3207,"Ġieu":3208,"Ġirs":3209,"Ġira":3210,"Ġsns":3211,"Ġrhn":3212,"Ġloo":3213,"Ġlat":3214,"Ġutt":3215,"Ġyk":3216,"Ġyet":3217,"ttk":3218,"Ġfk":3219,"itp":3220,"osb":3221,"osp":3222,"arc":3223,"ahc":3224,"ltc":3225,"ltp":3226,"sry":3227,"dtc":3228,"ihf":3229,"isb":3230,"nnm":3231,"mtu":3232,"Ġetm":3233,"trl":3234,"tru":3235,"tnd":3236,"slu":3237,"egd":3238,"sdu":3239,"ctu":3240,"epe":3241,"ams":3242,"Ġttl":3243,"fto":3244,"ftu":3245,"Ġotd":3246,"nue":3247,"Ġite":3248,"Ġito":3249,"Ġhtl":3250,"iot":3251,"sen":3252,"Ġeiw":3253,"Ġtlr":3254,"Ġthu":3255,"Ġoal":3256,"Ġasm":3257,"Ġiss":3258,"Ġioe":3259,"Ġihh":3260,"Ġnna":3261,"Ġhol":3262,"Ġhoe":3263,"Ġhho":3264,"Ġder":3265,"rtb":3266,"oig":3267,"osg":3268,"aib":3269,"ihc":3270,"odl":3271,"ewu":3272,"hiw":3273,"nrm":3274,"lnm":3275,"nia":3276,"egs":3277,"hde":3278,"hds":3279,"uru":3280,"epd":3281,"Ġerl":3282,"Ġota":3283,"iue":3284,"sue":3285,"suh":3286,"Ġits":3287,"pth":3288,"Ġrti":3289,"Ġrtl":3290,"ogn":3291,"ant":3292,"ja":3293,"jl":3294,"vet":3295,"vea":3296,"Ġeic":3297,"Ġtnu":3298,"Ġtim":3299,"Ġtll":3300,"Ġtld":3301,"Ġons":3302,"Ġaha":3303,"Ġald":3304,"Ġaru":3305,"Ġion":3306,"Ġini":3307,"Ġiha":3308,"Ġsir":3309,"Ġsse":3310,"Ġsrl":3311,"Ġrin":3312,"Ġrod":3313,"Ġrsa":3314,"Ġhed":3315,"Ġhin":3316,"Ġhhr":3317,"Ġhhi":3318,"Ġlir":3319,"Ġdeh":3320,"Ġues":3321,"eip":3322,"Ġweo":3323,"erv":3324,"Ġfee":3325,"Ġgee":3326,"itb":3327,"Ġpb":3328,"asb":3329,"eub":3330,"uty":3331,"eww":3332,"ouu":3333,"lnc":3334,"iaf":3335,"nha":3336,"yta":3337,"iul":3338,"owe":3339,"hui":3340,"Ġati":3341,"smh":3342,"aoo":3343,"qs":3344,"ret":3345,"Ġeli":3346,"Ġtsd":3347,"Ġtay":3348,"Ġtrm":3349,"Ġoio":3350,"Ġoaf":3351,"Ġolh":3352,"Ġasl":3353,"Ġars":3354,"Ġidt":3355,"Ġial":3356,"Ġsem":3357,"Ġsal":3358,"Ġsru":3359,"Ġnod":3360,"Ġnho":3361,"Ġnnl":3362,"Ġrhr":3363,"Ġhlt":3364,"Ġhio":3365,"Ġhac":3366,"Ġlon":3367,"Ġdit":3368,"Ġmes":3369,"eiv":3370,"asp":3371,"iif":3372,"ssc":3373,"ihy":3374,"nnw":3375,"shy":3376,"eym":3377,"rnm":3378,"sig":3379,"siw":3380,"him":3381,"ytd":3382,"hoc":3383,"eph":3384,"Ġttu":3385,"own":3386,"oci":3387,"huo":3388,"nui":3389,"imo":3390,"ims":3391,"rds":3392,"Ġith":3393,"rhm":3394,"iyn":3395,"hms":3396,"aht":3397,"ges":3398,"keo":3399,"kea":3400,"Ġex":3401,"Ġeeg":3402,"Ġeft":3403,"Ġeay":3404,"Ġeif":3405,"Ġtog":3406,"Ġosl":3407,"Ġorl":3408,"Ġaod":3409,"Ġaad":3410,"Ġaau":3411,"Ġaom":3412,"Ġsnh":3413,"Ġsna":3414,"Ġnhh":3415,"Ġnrl":3416,"Ġran":3417,"Ġrsh":3418,"Ġria":3419,"Ġhis":3420,"Ġhns":3421,"Ġfet":3422,"iiw":3423,"inc":3424,"srf":3425,"nny":3426,"rrm":3427,"tro":3428,"ytc":3429,"cto":3430,"hdd":3431,"hdi":3432,"amd":3433,"oyi":3434,"oce":3435,"gta":3436,"awl":3437,"awo":3438,"aci":3439,"Ġsts":3440,"Ġnti":3441,"Ġhth":3442,"lsy":3443,"hyn":3444,"ast":3445,"aor":3446,"beo":3447,"den":3448,"fea":3449,"gei":3450,"pet":3451,"tv":3452,"wei":3453,"Ġej":3454,"Ġelo":3455,"Ġtmt":3456,"Ġtau":3457,"Ġtla":3458,"Ġoha":3459,"Ġohl":3460,"Ġahs":3461,"Ġaiw":3462,"Ġaro":3463,"Ġisi":3464,"Ġsol":3465,"Ġsis":3466,"Ġsou":3467,"Ġsrs":3468,"Ġsro":3469,"Ġnsn":3470,"Ġrae":3471,"Ġrio":3472,"Ġhih":3473,"Ġhal":3474,"Ġhnr":3475,"Ġhia":3476,"Ġhha":3477,"Ġlst":3478,"Ġlht":3479,"Ġlos":3480,"Ġloh":3481,"Ġlsr":3482,"Ġdat":3483,"Ġdos":3484,"Ġuer":3485,"etea":3486,"Ġyea":3487,"elb":3488,"anb":3489,"arb":3490,"inf":3491,"olc":3492,"olf":3493,"rrc":3494,"odf":3495,"oml":3496,"nhy":3497,"hdo":3498,"oyo":3499,"owi":3500,"ayo":3501,"ofr":3502,"lle":3503,"llu":3504,"iyr":3505,"afs":3506,"neo":3507,"noo":3508,"Ġelu":3509,"Ġeob":3510,"Ġeop":3511,"Ġtad":3512,"Ġtid":3513,"Ġthl":3514,"Ġtoc":3515,"Ġoeg":3516,"Ġoid":3517,"Ġoic":3518,"Ġass":3519,"Ġaih":3520,"Ġahh":3521,"Ġari":3522,"Ġihr":3523,"Ġiey":3524,"Ġiso":3525,"Ġsoe":3526,"Ġnae":3527,"Ġrni":3528,"Ġrna":3529,"Ġrre":3530,"Ġcet":3531,"oav":3532,"htp":3533,"dtf":3534,"nnc":3535,"odw":3536,"Ġetc":3537,"lnf":3538,"lry":3539,"tra":3540,"nhu":3541,"wtm":3542,"cta":3543,"ebu":3544,"uro":3545,"epo":3546,"fts":3547,"ows":3548,"iev":3549,"suo":3550,"gth":3551,"awi":3552,"sml":3553,"ofe":3554,"llh":3555,"llo":3556,"rdu":3557,"hmh":3558,"hcr":3559,"nea":3560,"pk":3561,"pei":3562,"seh":3563,"tet":3564,"Ġtln":3565,"Ġtnm":3566,"Ġomt":3567,"Ġoso":3568,"Ġax":3569,"Ġaae":3570,"Ġaut":3571,"Ġaof":3572,"Ġiem":3573,"Ġisl":3574,"Ġirl":3575,"Ġiro":3576,"Ġsrn":3577,"Ġsew":3578,"Ġshs":3579,"Ġnih":3580,"Ġnis":3581,"Ġnhi":3582,"Ġnne":3583,"Ġrem":3584,"Ġrew":3585,"Ġheu":3586,"Ġhod":3587,"Ġhri":3588,"Ġuen":3589,"Ġuot":3590,"Ġmst":3591,"eik":3592,"Ġget":3593,"elee":3594,"irw":3595,"dtb":3596,"olw":3597,"shf":3598,"Ġety":3599,"hiy":3600,"auy":3601,"sag":3602,"iab":3603,"ytm":3604,"wtd":3605,"ftl":3606,"ocs":3607,"mri":3608,"mru":3609,"nds":3610,"awh":3611,"sme":3612,"smn":3613,"iwr":3614,"hmi":3615,"Ġenc":3616,"beh":3617,"fen":3618,"jd":3619,"ltt":3620,"mv":3621,"oeu":3622,"qe":3623,"Ġegt":3624,"Ġtic":3625,"Ġtlh":3626,"Ġoil":3627,"Ġoyt":3628,"Ġoep":3629,"Ġaiu":3630,"Ġiae":3631,"Ġsho":3632,"Ġnal":3633,"Ġrss":3634,"Ġrep":3635,"Ġhsd":3636,"Ġhsf":3637,"Ġuoo":3638,"Ġuht":3639,"Ġuos":3640,"eav":3641,"enee":3642,"Ġwer":3643,"oaee":3644,"aaee":3645,"ohb":3646,"aov":3647,"dtp":3648,"shm":3649,"eyw":3650,"adw":3651,"lrc":3652,"tnl":3653,"egl":3654,"hlu":3655,"url":3656,"owd":3657,"sud":3658,"aya":3659,"afr":3660,"Ġrte":3661,"aoh":3662,"bot":3663,"hon":3664,"ioo":3665,"lea":3666,"net":3667,"oat":3668,"Ġeim":3669,"Ġtom":3670,"Ġtsc":3671,"Ġout":3672,"Ġonm":3673,"Ġahu":3674,"Ġara":3675,"Ġilt":3676,"Ġiis":3677,"Ġsut":3678,"Ġsey":3679,"Ġsia":3680,"Ġnia":3681,"Ġnid":3682,"Ġnnd":3683,"Ġrih":3684,"Ġrou":3685,"Ġrnl":3686,"Ġrnu":3687,"Ġhdt":3688,"Ġhnh":3689,"Ġhnd":3690,"Ġlar":3691,"Ġdah":3692,"Ġuoa":3693,"Ġyeo":3694,"Ġweh":3695,"stee":3696,"eup":3697,"ahb":3698,"ssg":3699,"emg":3700,"Ġvf":3701,"srw":3702,"olg":3703,"Ġkf":3704,"hhc":3705,"rrw":3706,"nrw":3707,"lrw":3708,"dru":3709,"ftm":3710,"Ġeru":3711,"naw":3712,"mrd":3713,"hek":3714,"awa":3715,"ach":3716,"Ġitl":3717,"Ġhtd":3718,"log":3719,"Ġede":3720,"Ġedi":3721,"sce":3722,"scr":3723,"Ġeun":3724,"sfn":3725,"'?":3726,"fer":3727,"hen":3728,"nen":3729,"ont":3730,"qi":3731,"ueo":3732,"Ġebt":3733,"Ġehm":3734,"Ġteb":3735,"Ġtiu":3736,"Ġtow":3737,"Ġtiw":3738,"Ġtsy":3739,"Ġoow":3740,"Ġasd":3741,"Ġahd":3742,"Ġasu":3743,"Ġahw":3744,"Ġarw":3745,"Ġiod":3746,"Ġihs":3747,"Ġihl":3748,"Ġiie":3749,"Ġioc":3750,"Ġsae":3751,"Ġshd":3752,"Ġsnl":3753,"Ġsno":3754,"Ġsrh":3755,"Ġnru":3756,"Ġrns":3757,"Ġrno":3758,"Ġrri":3759,"Ġhhs":3760,"Ġhsl":3761,"Ġlrt":3762,"Ġlan":3763,"Ġlin":3764,"Ġmit":3765,"eak":3766,"eaee":3767,"Ġyoa":3768,"enei":3769,"Ġwot":3770,"otv":3771,"Ġgv":3772,"oiv":3773,"ahg":3774,"iig":3775,"emf":3776,"Ġkw":3777,"isg":3778,"eyy":3779,"ewy":3780,"lng":3781,"tnm":3782,"sll":3783,"idm":3784,"ctm":3785,"epa":3786,"sui":3787,"hud":3788,"ayi":3789,"ime":3790,"acs":3791,"ofi":3792,"lls":3793,"rdn":3794,"nev":3795,"icn":3796,"rme":3797,"ceo":3798,"dot":3799,"gtt":3800,"loa":3801,"naa":3802,"oht":3803,"pes":3804,"qd":3805,"tea":3806,"uet":3807,"Ġ3":3808,"Ġeur":3809,"Ġtdr":3810,"Ġtil":3811,"Ġosd":3812,"Ġohe":3813,"Ġoaw":3814,"Ġols":3815,"Ġaew":3816,"Ġaou":3817,"Ġaef":3818,"Ġaeb":3819,"Ġals":3820,"Ġiut":3821,"Ġiia":3822,"Ġina":3823,"Ġslt":3824,"Ġsod":3825,"Ġsra":3826,"Ġnhr":3827,"Ġnut":3828,"Ġniu":3829,"Ġnrs":3830,"Ġnre":3831,"Ġrrs":3832,"Ġrro":3833,"Ġhao":3834,"Ġhnu":3835,"Ġloe":3836,"Ġdeu":3837,"etet":3838,"ettt":3839,"Ġmea":3840,"Ġmos":3841,"oov":3842,"Ġfeo":3843,"ntk":3844,"steo":3845,"anp":3846,"aek":3847,"hhw":3848,"ewc":3849,"trd":3850,"nim":3851,"egi":3852,"nli":3853,"amo":3854,"nsw":3855,"fta":3856,"owa":3857,"owl":3858,"mra":3859,"gte":3860,"sma":3861,"acr":3862,"ofh":3863,"Ġitu":3864,"Ġsth":3865,"iyu":3866,"ruh":3867,"ogr":3868,"dds":3869,"btt":3870,"ctn":3871,"goh":3872,"kk":3873,"qh":3874,"res":3875,"xm":3876,"Ġesc":3877,"Ġelm":3878,"Ġtou":3879,"Ġoom":3880,"Ġori":3881,"Ġora":3882,"Ġaey":3883,"Ġamt":3884,"Ġaln":3885,"Ġiec":3886,"Ġsha":3887,"Ġndt":3888,"Ġnad":3889,"Ġnra":3890,"Ġrsi":3891,"Ġrhs":3892,"Ġrom":3893,"Ġril":3894,"Ġrie":3895,"Ġhil":3896,"Ġhna":3897,"Ġlai":3898,"Ġlah":3899,"Ġlsn":3900,"Ġlis":3901,"Ġlsh":3902,"Ġlhi":3903,"Ġdin":3904,"Ġdtn":3905,"etes":3906,"Ġcen":3907,"ooee":3908,"otk":3909,"Ġgk":3910,"rtee":3911,"eug":3912,"hnw":3913,"irg":3914,"alm":3915,"rry":3916,"ecy":3917,"hic":3918,"nic":3919,"nhc":3920,"nhm":3921,"nhw":3922,"ytf":3923,"ytu":3924,"iop":3925,"idd":3926,"ebm":3927,"ftd":3928,"oys":3929,"Ġoto":3930,"Ġotu":3931,"mrs":3932,"Ġath":3933,"Ġato":3934,"ayh":3935,"rli":3936,"smi":3937,"acl":3938,"bth":3939,"bto":3940,"bts":3941,"Ġsta":3942,"pts":3943,"iyi":3944,"icr":3945,"Ġrto":3946,"oge":3947,"fei":3948,"gen":3949,"iat":3950,"rot":3951,"xy":3952,"Ġtsl":3953,"Ġtie":3954,"Ġtli":3955,"Ġoln":3956,"Ġodd":3957,"Ġayt":3958,"Ġaoy":3959,"Ġaoc":3960,"Ġasw":3961,"Ġare":3962,"Ġade":3963,"Ġilr":3964,"Ġihe":3965,"Ġirh":3966,"Ġsso":3967,"Ġsie":3968,"Ġshe":3969,"Ġnew":3970,"Ġnsa":3971,"Ġrut":3972,"Ġrey":3973,"Ġrim":3974,"Ġhnn":3975,"Ġlel":3976,"Ġlao":3977,"Ġlod":3978,"Ġdas":3979,"Ġdtr":3980,"Ġust":3981,"Ġmer":3982,"Ġyei":3983,"Ġyer":3984,"Ġwes":3985,"ereo":3986,"Ġctt":3987,"Ġfv":3988,"ork":3989,"irf":3990,"snb":3991,"oek":3992,"alb":3993,"rng":3994,"hig":3995,"niy":3996,"drc":3997,"drm":3998,"wty":3999,"idl":4000,"cty":4001,"hlw":4002,"hda":4003,"nla":4004,"epl":4005,"epm":4006,"eps":4007,"ami":4008,"nap":4009,"nus":4010,"acd":4011,"lli":4012,"rdh":4013,"Ġsti":4014,"Ġsto":4015,"Ġnta":4016,"Ġnte":4017,"Ġntu":4018,"Ġhti":4019,"iwe":4020,"hmn":4021,"Ġrth":4022,"lue":4023,"Ġeue":4024,"sfr":4025,"hce":4026,"bea":4027,"qr":4028,"srt":4029,"ten":4030,"ven":4031,"yeo":4032,"Ġept":4033,"Ġtj":4034,"Ġtam":4035,"Ġoiu":4036,"Ġoie":4037,"Ġoac":4038,"Ġord":4039,"Ġoiy":4040,"Ġodn":4041,"Ġoli":4042,"Ġane":4043,"Ġiid":4044,"Ġire":4045,"Ġsef":4046,"Ġsne":4047,"Ġsls":4048,"Ġnil":4049,"Ġnso":4050,"Ġnrm":4051,"Ġrdt":4052,"Ġrln":4053,"Ġrso":4054,"Ġrru":4055,"Ġhec":4056,"Ġhou":4057,"Ġhse":4058,"Ġlss":4059,"Ġdai":4060,"eteo":4061,"eok":4062,"Ġmen":4063,"eaea":4064,"Ġytt":4065,"Ġyen":4066,"Ġwk":4067,"Ġwei":4068,"atv":4069,"oib":4070,"ohg":4071,"ahp":4072,"Ġvg":4073,"utf":4074,"rnf":4075,"mtc":4076,"mtm":4077,"ouw":4078,"omw":4079,"hag":4080,"urc":4081,"sul":4082,"Ġ;,":4083,"ndo":4084,"Ġata":4085,"gtu":4086,"rll":4087,"ofo":4088,"bta":4089,"Ġenm":4090,"syd":4091,"swn":4092,"ifr":4093,"nmn":4094,"Ġlte":4095,"eeth":4096,"!'":4097,"bei":4098,"sel":4099,"tes":4100,"Ġtmr":4101,"Ġtiy":4102,"Ġthm":4103,"Ġtdn":4104,"Ġthy":4105,"Ġtnw":4106,"Ġtek":4107,"Ġolr":4108,"Ġowt":4109,"Ġohu":4110,"Ġold":4111,"Ġolo":4112,"Ġosg":4113,"Ġaeg":4114,"Ġaid":4115,"Ġahl":4116,"Ġaow":4117,"Ġaaf":4118,"Ġaic":4119,"Ġiny":4120,"Ġsio":4121,"Ġsnd":4122,"Ġsay":4123,"Ġsdn":4124,"Ġnef":4125,"Ġnlr":4126,"Ġnno":4127,"Ġrau":4128,"Ġhau":4129,"Ġhay":4130,"Ġhne":4131,"eeet":4132,"Ġlio":4133,"Ġdel":4134,"Ġdaa":4135,"Ġdon":4136,"Ġdss":4137,"Ġdol":4138,"Ġuaa":4139,"Ġuai":4140,"Ġmtr":4141,"Ġyst":4142,"erei":4143,"Ġceo":4144,"Ġgeo":4145,"Ġpk":4146,"Ġpv":4147,"arp":4148,"iib":4149,"ltb":4150,"hnb":4151,"snp":4152,"aoee":4153,"srg":4154,"Ġkg":4155,"rnc":4156,"mtf":4157,"hip":4158,"hsf":4159,"lnw":4160,"tnu":4161,"omd":4162,"slm":4163,"drd":4164,"iag":4165,"ilf":4166,"ilm":4167,"ytw":4168,"eba":4169,"ebl":4170,"ebw":4171,"nsm":4172,"fty":4173,"naf":4174,"Ġatl":4175,"rla":4176,"aco":4177,"btu":4178,"Ġitd":4179,"Ġnto":4180,"Ġhts":4181,"swr":4182,"ifi":4183,"luo":4184,"kth":4185,"Ġuti":4186,"ied":4187,"ort":4188,"ptr":4189,"rei":4190,"teo":4191,"vot":4192,"Ġtsu":4193,"Ġtsm":4194,"Ġtaf":4195,"Ġtre":4196,"Ġoim":4197,"Ġony":4198,"Ġalr":4199,"Ġaim":4200,"Ġise":4201,"Ġsmt":4202,"Ġsyt":4203,"Ġssd":4204,"Ġsid":4205,"Ġssm":4206,"Ġnec":4207,"Ġnou":4208,"Ġnhl":4209,"Ġreg":4210,"Ġrnh":4211,"Ġriu":4212,"Ġrrh":4213,"Ġhoy":4214,"Ġhsu":4215,"Ġhdn":4216,"Ġlas":4217,"Ġlii":4218,"Ġllt":4219,"Ġlem":4220,"Ġlnr":4221,"Ġlni":4222,"Ġdnt":4223,"Ġdrt":4224,"Ġdrn":4225,"Ġuat":4226,"Ġuii":4227,"eten":4228,"Ġyes":4229,"esk":4230,"tteo":4231,"Ġcea":4232,"Ġ,;":4233,"Ġfeh":4234,"Ġges":4235,"oaet":4236,"stv":4237,"rtet":4238,"sng":4239,"dtg":4240,"isf":4241,"rnw":4242,"sic":4243,"ouf":4244,"hif":4245,"efc":4246,"sdw":4247,"ctc":4248,"ebs":4249,"hdu":4250,"nll":4251,"nlu":4252,"epu":4253,"ium":4254,"nda":4255,"gtd":4256,"awd":4257,"nul":4258,"nun":4259,"rde":4260,"btd":4261,"bti":4262,"iyd":4263,"Ġntl":4264,"iwh":4265,"iws":4266,"hme":4267,"Ġrta":4268,"lde":4269,"scs":4270,"Ġeuh":4271,"Ġeus":4272,"hwn":4273,"hys":4274,"opr":4275,"hfn":4276,"vts":4277,"alt":4278,"boo":4279,"iht":4280,"irt":4281,"kit":4282,"ner":4283,"ptt":4284,"rst":4285,"xc":4286,"Ġeog":4287,"Ġtof":4288,"Ġtds":4289,"Ġosu":4290,"Ġamr":4291,"Ġahc":4292,"Ġarc":4293,"Ġiln":4294,"Ġils":4295,"Ġili":4296,"Ġsiu":4297,"Ġsim":4298,"Ġsri":4299,"Ġnha":4300,"Ġnaf":4301,"Ġnro":4302,"Ġral":4303,"Ġrec":4304,"Ġrse":4305,"Ġhid":4306,"Ġhoc":4307,"Ġhhe":4308,"eeeo":4309,"Ġlih":4310,"Ġlhl":4311,"Ġlie":4312,"Ġlrh":4313,"Ġlre":4314,"Ġded":4315,"Ġuor":4316,"eoei":4317,"Ġmei":4318,"Ġmeh":4319,"Ġmrt":4320,"eaoo":4321,"esea":4322,"ttv":4323,"ttee":4324,"Ġwet":4325,"Ġcoo":4326,"Ġbk":4327,"htee":4328,"onk":4329,"aip":4330,"iip":4331,"emw":4332,"hnp":4333,"hrb":4334,"hhg":4335,"alg":4336,"eyf":4337,"rnb":4338,"ewm":4339,"hsb":4340,"hsw":4341,"auw":4342,"niw":4343,"slf":4344,"sly":4345,"sab":4346,"wtc":4347,"wtw":4348,"ebo":4349,"hdl":4350,"hop":4351,"ndn":4352,"acn":4353,"ofs":4354,"rdl":4355,"rdo":4356,"Ġhto":4357,"Ġhty":4358,"afl":4359,"ldn":4360,"Ġenf":4361,"ogo":4362,"Ġeua":4363,"nch":4364,"ope":4365,"igr":4366,"rcs":4367,"Ġxt":4368,"cat":4369,"fot":4370,"gor":4371,"htt":4372,"ion":4373,"ial":4374,"ker":4375,"ktn":4376,"mk":4377,"pen":4378,"peh":4379,"pel":4380,"raa":4381,"utt":4382,"Ġtec":4383,"Ġtur":4384,"Ġtlu":4385,"Ġtlm":4386,"Ġtnf":4387,"Ġoro":4388,"Ġosy":4389,"Ġorm":4390,"Ġosf":4391,"Ġode":4392,"Ġalh":4393,"Ġala":4394,"Ġanm":4395,"Ġanw":4396,"Ġado":4397,"Ġiam":4398,"Ġinm":4399,"Ġirm":4400,"Ġiun":4401,"Ġsrm":4402,"Ġnse":4403,"Ġnoc":4404,"Ġrrf":4405,"Ġhln":4406,"Ġhno":4407,"Ġhra":4408,"Ġhre":4409,"Ġldt":4410,"Ġlal":4411,"Ġdst":4412,"Ġdht":4413,"Ġdoi":4414,"Ġdsr":4415,"Ġdae":4416,"Ġdsi":4417,"Ġueh":4418,"Ġunt":4419,"eteh":4420,"Ġmnt":4421,"Ġmht":4422,"eaet":4423,"eaeo":4424,"Ġyeh":4425,"Ġyoi":4426,"Ġyor":4427,"Ġwen":4428,"Ġfei":4429,"Ġpeo":4430,"snf":4431,"ihb":4432,"utg":4433,"rny":4434,"ewf":4435,"adb":4436,"lnb":4437,"drw":4438,"sdy":4439,"hap":4440,"ctf":4441,"Ġerm":4442,"oyl":4443,"Ġotm":4444,"iud":4445,"Ġ;.":4446,"hul":4447,"nde":4448,"rlo":4449,"awe":4450,"nuo":4451,"rdm":4452,"btl":4453,"Ġstm":4454,"Ġnts":4455,"hmo":4456,"afa":4457,"sws":4458,"Ġehf":4459,"ifs":4460,"dhc":4461,"ddo":4462,"abr":4463,"dme":4464,"ael":4465,"det":4466,"deo":4467,"hst":4468,"har":4469,"iol":4470,"ju":4471,"paa":4472,"teh":4473,"xw":4474,"Ġtyt":4475,"Ġthw":4476,"Ġtsf":4477,"Ġtdu":4478,"Ġthf":4479,"Ġtsg":4480,"Ġosm":4481,"Ġaep":4482,"Ġale":4483,"Ġanf":4484,"Ġiou":4485,"Ġiau":4486,"Ġiil":4487,"Ġidu":4488,"Ġsil":4489,"Ġsur":4490,"Ġsam":4491,"Ġssy":4492,"Ġssg":4493,"Ġnlt":4494,"Ġnol":4495,"Ġrha":4496,"Ġram":4497,"Ġrnd":4498,"Ġrls":4499,"Ġhhh":4500,"Ġhsa":4501,"Ġhrl":4502,"Ġhic":4503,"eeer":4504,"Ġlhn":4505,"Ġlae":4506,"Ġlrr":4507,"Ġllr":4508,"Ġdor":4509,"Ġdoh":4510,"Ġdan":4511,"Ġdii":4512,"Ġdsa":4513,"Ġdnh":4514,"eoea":4515,"Ġman":4516,"Ġyat":4517,"Ġfea":4518,"Ġftt":4519,"otoa":4520,"hng":4521,"hrc":4522,"hrp":4523,"Ġkp":4524,"isp":4525,"ecf":4526,"mtp":4527,"mtw":4528,"hsg":4529,"auf":4530,"ego":4531,"sop":4532,"iob":4533,"sda":4534,"urm":4535,"epy":4536,"aml":4537,"nsc":4538,"Ġerc":4539,"Ġerw":4540,"oya":4541,"nac":4542,"huh":4543,"ayl":4544,"aws":4545,"nua":4546,"nud":4547,"imd":4548,"smo":4549,"nek":4550,"Ġstd":4551,"Ġstl":4552,"iye":4553,"iwo":4554,"ldo":4555,"swa":4556,"swe":4557,"dnw":4558,"Ġedh":4559,"Ġeui":4560,"hyr":4561,"nye":4562,"eete":4563,"kti":4564,"Ġeme":4565,"lyh":4566,"Ġeys":4567,"lws":4568,"ber":4569,"fes":4570,"foa":4571,"haa":4572,"nei":4573,"ned":4574,"qa":4575,"ver":4576,"voa":4577,"Ġect":4578,"Ġtx":4579,"Ġtaw":4580,"Ġtac":4581,"Ġtag":4582,"Ġtdi":4583,"Ġox":4584,"Ġodr":4585,"Ġogt":4586,"Ġole":4587,"Ġohw":4588,"Ġoob":4589,"Ġoig":4590,"Ġoly":4591,"Ġohb":4592,"Ġalm":4593,"Ġads":4594,"Ġiur":4595,"Ġino":4596,"Ġiac":4597,"Ġine":4598,"Ġsau":4599,"Ġssa":4600,"Ġseg":4601,"Ġshl":4602,"Ġsdi":4603,"Ġnhe":4604,"Ġniw":4605,"Ġnic":4606,"Ġnle":4607,"Ġrad":4608,"Ġhlr":4609,"Ġhie":4610,"Ġhrs":4611,"Ġdni":4612,"Ġuit":4613,"Ġuoh":4614,"Ġutr":4615,"eoet":4616,"Ġmar":4617,"eaat":4618,"Ġyit":4619,"Ġceh":4620,"Ġctr":4621,"Ġctn":4622,"Ġfes":4623,"oak":4624,"osv":4625,"inb":4626,"aok":4627,"hhp":4628,"odc":4629,"ouc":4630,"tna":4631,"nib":4632,"sdm":4633,"hdc":4634,"hog":4635,"nlo":4636,"ftc":4637,"oww":4638,"owy":4639,"oca":4640,"Ġatm":4641,"ayd":4642,"ayu":4643,"rlu":4644,"ofw":4645,"lld":4646,"Ġita":4647,"pta":4648,"pto":4649,"iyl":4650,"iyo":4651,"Ġhta":4652,"ice":4653,"lhw":4654,"syn":4655,"lob":4656,"dhg":4657,"hyh":4658,"hcn":4659,"obi":4660,"duo":4661,"?'":4662,"coa":4663,"dea":4664,"ftt":4665,"hes":4666,"hat":4667,"hoa":4668,"hit":4669,"hoi":4670,"hlt":4671,"ian":4672,"jf":4673,"kes":4674,"kat":4675,"nes":4676,"qw":4677,"rea":4678,"rtt":4679,"son":4680,"too":4681,"yen":4682,"zr":4683,"Ġtle":4684,"Ġtny":4685,"Ġtde":4686,"Ġola":4687,"Ġolu":4688,"Ġonc":4689,"Ġoab":4690,"Ġaur":4691,"Ġahm":4692,"Ġalo":4693,"Ġasf":4694,"Ġanc":4695,"Ġaop":4696,"Ġiad":4697,"Ġiiu":4698,"Ġiru":4699,"Ġisf":4700,"Ġinw":4701,"Ġsom":4702,"Ġsre":4703,"Ġnom":4704,"Ġneg":4705,"Ġnla":4706,"Ġrlr":4707,"Ġhim":4708,"Ġhrd":4709,"Ġhro":4710,"Ġhnm":4711,"eett":4712,"eeot":4713,"eetr":4714,"Ġdlt":4715,"Ġdrs":4716,"Ġuel":4717,"Ġunn":4718,"eoaa":4719,"Ġmoo":4720,"Ġmor":4721,"eaen":4722,"Ġyoo":4723,"eiet":4724,"ehv":4725,"ooes":4726,"Ġfoa":4727,"itk":4728,"ntet":4729,"Ġbv":4730,"Ġpee":4731,"arg":4732,"ssp":4733,"ing":4734,"inp":4735,"hrg":4736,"alf":4737,"rrg":4738,"Ġetg":4739,"nrc":4740,"eff":4741,"efg":4742,"aum":4743,"tnw":4744,"omc":4745,"nif":4746,"iap":4747,"iog":4748,"hlm":4749,"hob":4750,"oyd":4751,"iua":4752,"sek":4753,"iek":4754,"och":4755,"huu":4756,"ndm":4757,"rle":4758,"nuh":4759,"nuw":4760,"ofl":4761,"rdd":4762,"rhw":4763,"Ġstu":4764,"Ġhtu":4765,"lsw":4766,"dnm":4767,"nmo":4768,"ogh":4769,"hci":4770,"lmu":4771,"Ġewn":4772,"ume":4773,"oeee":4774,"del":4775,"gtr":4776,"ilt":4777,"qo":4778,"ter":4779,"vtt":4780,"vat":4781,"vit":4782,"waa":4783,"Ġ0":4784,"Ġtgt":4785,"Ġtib":4786,"Ġoay":4787,"Ġohc":4788,"Ġonw":4789,"Ġoag":4790,"Ġoib":4791,"Ġaam":4792,"Ġaac":4793,"Ġall":4794,"Ġasy":4795,"Ġalu":4796,"Ġaun":4797,"Ġadc":4798,"Ġiew":4799,"Ġiyt":4800,"Ġieb":4801,"Ġiri":4802,"Ġiob":4803,"Ġney":4804,"Ġnhs":4805,"Ġnhd":4806,"Ġnim":4807,"Ġnrd":4808,"Ġnri":4809,"Ġnli":4810,"Ġndd":4811,"Ġnnc":4812,"Ġrhe":4813,"Ġrrd":4814,"Ġrdh":4815,"Ġhem":4816,"Ġhut":4817,"Ġhey":4818,"Ġhew":4819,"Ġhso":4820,"Ġhlo":4821,"Ġhrw":4822,"Ġleu":4823,"Ġlsi":4824,"Ġlru":4825,"Ġdoe":4826,"Ġdno":4827,"Ġuoi":4828,"Ġuon":4829,"etei":4830,"etaa":4831,"eoen":4832,"eoeh":4833,"Ġmoa":4834,"Ġmaa":4835,"Ġmai":4836,"Ġmas":4837,"Ġwtt":4838,"Ġwat":4839,"Ġwtr":4840,"eree":4841,"eret":4842,"Ġcot":4843,"Ġfoo":4844,"Ġgei":4845,"Ġpen":4846,"asee":4847,"hret":4848,"srp":4849,"ihp":4850,"nnf":4851,"eyp":4852,"Ġetb":4853,"Ġetf":4854,"adg":4855,"hib":4856,"auc":4857,"omb":4858,"egw":4859,"hab":4860,"urw":4861,"Ġttm":4862,"ftf":4863,"oym":4864,"Ġotc":4865,"owo":4866,"ocm":4867,"oco":4868,"mrc":4869,"mry":4870,"Ġatu":4871,"aym":4872,"gtl":4873,"rld":4874,"smu":4875,"ofa":4876,"ofu":4877,"Ġitm":4878,"iya":4879,"Ġntd":4880,"afe":4881,"afn":4882,"lda":4883,"ldd":4884,"lhy":4885,"rag":4886,"ifa":4887,"ogs":4888,"Ġeud":4889,"Ġeul":4890,"sfe":4891,"lms":4892,"ncn":4893,"agi":4894,"vtl":4895,"kte":4896,"uml":4897,"ipr":4898,"bos":4899,"cea":4900,"cen":4901,"der":4902,"fet":4903,"ioi":4904,"koo":4905,"kos":4906,"mea":4907,"men":4908,"ser":4909,"weh":4910,"Ġtlo":4911,"Ġtab":4912,"Ġtdo":4913,"Ġtus":4914,"Ġtwn":4915,"Ġomr":4916,"Ġobt":4917,"Ġoda":4918,"Ġact":4919,"Ġaaw":4920,"Ġadn":4921,"Ġadi":4922,"Ġief":4923,"Ġisa":4924,"Ġieg":4925,"Ġill":4926,"Ġibt":4927,"Ġila":4928,"Ġiig":4929,"Ġssl":4930,"Ġsdr":4931,"Ġshu":4932,"Ġshm":4933,"Ġsdo":4934,"Ġnln":4935,"Ġnll":4936,"Ġnrh":4937,"Ġnsf":4938,"Ġnrc":4939,"Ġrmt":4940,"Ġrid":4941,"Ġrct":4942,"Ġrhd":4943,"Ġriw":4944,"Ġrnc":4945,"Ġhmt":4946,"Ġhiu":4947,"eeen":4948,"Ġlol":4949,"Ġlrn":4950,"Ġlhs":4951,"Ġlse":4952,"Ġlro":4953,"Ġdir":4954,"Ġdis":4955,"eoes":4956,"Ġmot":4957,"Ġmss":4958,"Ġmou":4959,"Ġytr":4960,"esv":4961,"Ġwoo":4962,"Ġces":4963,"Ġfnt":4964,"Ġgea":4965,"elk":4966,"elv":4967,"Ġbot":4968,"htk":4969,"rtk":4970,"rtv":4971,"onee":4972,"anv":4973,"Ġvp":4974,"srb":4975,"odg":4976,"shg":4977,"eyg":4978,"ecp":4979,"Ġetp":4980,"nrb":4981,"nry":4982,"tnf":4983,"nig":4984,"drf":4985,"ily":4986,"Ġttf":4987,"Ġerf":4988,"oyw":4989,"suu":4990,"ndh":4991,"Ġatd":4992,"rlm":4993,"awu":4994,"imi":4995,"rsy":4996,"afh":4997,"lsc":4998,"icd":4999}